?	0
<unk>	0
!	0
,	0
।	0
.	0
-	0
▁ক	-0
ার	-1
য়	-2
▁আ	-3
▁স	-4
▁ব	-5
▁t	-6
▁প	-7
▁এ	-8
ের	-9
্য	-10
he	-11
▁হ	-12
▁a	-13
▁ত	-14
ান	-15
▁দ	-16
▁ন	-17
▁ম	-18
্র	-19
▁য	-20
▁আম	-21
▁কর	-22
in	-23
▁s	-24
▁the	-25
তে	-26
▁w	-27
য়ে	-28
কে	-29
ছে	-30
▁o	-31
টা	-32
▁অ	-33
re	-34
ন্	-35
লে	-36
▁জ	-37
বে	-38
লা	-39
▁b	-40
er	-41
ড়	-42
nd	-43
্যা	-44
▁h	-45
▁c	-46
▁m	-47
লো	-48
▁র	-49
ou	-50
▁গ	-51
▁f	-52
িক	-53
▁i	-54
▁বা	-55
▁এক	-56
at	-57
▁ভ	-58
▁চ	-59
on	-60
িন	-61
▁খ	-62
▁p	-63
▁যে	-64
ায়	-65
ed	-66
▁সে	-67
en	-68
র্	-69
িয়ে	-70
▁করে	-71
▁থ	-72
ছি	-73
দের	-74
▁শ	-75
▁না	-76
▁কি	-77
▁প্র	-78
▁আমি	-79
টি	-80
▁d	-81
▁of	-82
▁and	-83
▁ও	-84
▁to	-85
is	-86
স্	-87
or	-88
ing	-89
▁দে	-90
▁l	-91
ll	-92
▁তা	-93
▁he	-94
▁th	-95
ar	-96
▁বি	-97
an	-98
es	-99
নে	-100
as	-101
it	-102
▁in	-103
চ্	-104
রা	-105
▁n	-106
▁এব	-107
তি	-108
▁তো	-109
ানে	-110
▁ভা	-111
▁পা	-112
▁পর	-113
▁আমার	-114
াম	-115
▁এবং	-116
▁g	-117
ন্য	-118
▁উ	-119
▁সম	-120
লি	-121
বা	-122
ক্	-123
▁এই	-124
পন	-125
▁হয়	-126
গু	-127
▁আর	-128
য়া	-129
ুর	-130
▁কা	-131
▁ফ	-132
▁তার	-133
েকে	-134
ic	-135
▁পার	-136
▁আপন	-137
▁সা	-138
▁থেকে	-139
▁যা	-140
om	-141
োন	-142
কা	-143
▁নি	-144
▁আছে	-145
ুব	-146
le	-147
▁হ্যা	-148
ন্ত	-149
ad	-150
▁মা	-151
▁আমা	-152
খন	-153
িত	-154
▁be	-155
▁e	-156
▁হ্যাঁ	-157
▁দেখ	-158
ot	-159
ছা	-160
ুন	-161
▁জন্য	-162
্ব	-163
▁y	-164
ভা	-165
ut	-166
▁থা	-167
▁ভালো	-168
▁হয়ে	-169
কার	-170
ow	-171
ve	-172
গে	-173
▁রা	-174
▁বল	-175
ষ্	-176
গুলো	-177
রে	-178
▁অনে	-179
সে	-180
ন্দ	-181
▁ধ	-182
▁খুব	-183
েশ	-184
et	-185
▁ই	-186
▁wh	-187
তা	-188
▁it	-189
st	-190
ছু	-191
ld	-192
ড়ি	-193
ly	-194
▁স্	-195
▁অনেক	-196
বার	-197
▁re	-198
▁আমাদের	-199
ent	-200
▁that	-201
▁করতে	-202
id	-203
gh	-204
ion	-205
se	-206
ড়া	-207
▁was	-208
al	-209
ঙ্	-210
িনি	-211
▁on	-212
ধ্য	-213
▁সেই	-214
▁কোন	-215
খানে	-216
▁কিছু	-217
চ্ছে	-218
▁you	-219
▁ড	-220
▁আমরা	-221
▁চা	-222
দি	-223
▁হবে	-224
▁দু	-225
▁r	-226
▁u	-227
▁ঠ	-228
im	-229
am	-230
না	-231
ac	-232
▁সব	-233
ver	-234
▁লা	-235
ান্	-236
লাম	-237
▁দি	-238
থা	-239
ay	-240
▁একটা	-241
ভি	-242
ir	-243
▁নিয়ে	-244
য়ার	-245
ত্র	-246
্প	-247
ওয়া	-248
▁হা	-249
▁we	-250
▁st	-251
▁for	-252
▁his	-253
মন	-254
▁ব্য	-255
ক্ষ	-256
▁ঠিক	-257
▁পরি	-258
নের	-259
ন্ন	-260
▁as	-261
টে	-262
▁নে	-263
ith	-264
▁কে	-265
▁কার	-266
ুম	-267
▁ঘ	-268
▁ছ	-269
কম	-270
ন্তু	-271
টু	-272
ur	-273
োগ	-274
▁with	-275
▁কিন্তু	-276
ির	-277
তো	-278
▁করা	-279
▁দিয়ে	-280
oo	-281
ভাবে	-282
ght	-283
ারা	-284
▁মান	-285
▁আপনি	-286
মে	-287
ce	-288
▁ha	-289
ak	-290
ter	-291
বি	-292
ার্	-293
সা	-294
▁কোনো	-295
▁মধ্য	-296
▁খে	-297
▁ব্যব	-298
ুষ	-299
্ষ	-300
▁an	-301
▁যায়	-302
▁her	-303
ুল	-304
▁আস	-305
▁had	-306
▁খা	-307
জন	-308
▁হচ্ছে	-309
▁মধ্যে	-310
▁গে	-311
ch	-312
▁এর	-313
▁is	-314
▁not	-315
জে	-316
লেন	-317
▁এখন	-318
▁একটু	-319
▁ওই	-320
▁pr	-321
▁কী	-322
▁at	-323
▁যদি	-324
মা	-325
▁sh	-326
ain	-327
▁ছি	-328
চ্ছা	-329
her	-330
▁মানুষ	-331
▁মানে	-332
▁সু	-333
▁তাদের	-334
▁থাকে	-335
▁অন	-336
▁se	-337
ct	-338
্রি	-339
হলে	-340
হা	-341
▁but	-342
স্ত	-343
▁গা	-344
▁বেশ	-345
বেন	-346
ould	-347
ছেন	-348
▁বিভি	-349
বো	-350
▁বিভিন্ন	-351
▁ট	-352
▁উপ	-353
▁তাহলে	-354
▁দিন	-355
▁আচ্ছা	-356
ight	-357
▁তারা	-358
▁টা	-359
টার	-360
কি	-361
ill	-362
দ্	-363
▁she	-364
▁পারে	-365
▁জান	-366
জার	-367
▁fr	-368
▁কারণ	-369
স্থ	-370
▁একটি	-371
▁সময়	-372
▁k	-373
ীয়	-374
▁সং	-375
all	-376
ীর	-377
ড়ে	-378
▁পে	-379
▁me	-380
ত্	-381
্চ	-382
▁su	-383
▁de	-384
রি	-385
নি	-386
পা	-387
ঁচ	-388
▁আপনার	-389
▁বলে	-390
▁বাড়ি	-391
il	-392
▁ne	-393
▁মো	-394
▁করি	-395
op	-396
থে	-397
red	-398
▁him	-399
ছিলাম	-400
▁মে	-401
▁কো	-402
ge	-403
সি	-404
▁so	-405
▁ch	-406
▁গ্র	-407
▁সেটা	-408
শে	-409
ess	-410
টো	-411
▁কাজ	-412
লের	-413
▁or	-414
রকার	-415
▁ধর	-416
▁mo	-417
us	-418
▁sa	-419
▁হয়েছে	-420
▁বাং	-421
ওয়ার	-422
▁অব	-423
▁যেমন	-424
দা	-425
গুলি	-426
▁রয়ে	-427
জি	-428
▁ব্যা	-429
one	-430
লার	-431
▁মি	-432
▁v	-433
▁do	-434
গা	-435
▁দা	-436
▁li	-437
▁তিনি	-438
ক্ত	-439
▁ল	-440
ানো	-441
▁প্রতি	-442
▁বাংলা	-443
▁রাখ	-444
ঙ্গে	-445
ame	-446
দ্ধ	-447
ছাড়া	-448
▁শি	-449
▁গিয়ে	-450
▁have	-451
ri	-452
▁মু	-453
ন্ধ	-454
▁অনু	-455
▁বে	-456
ard	-457
ation	-458
▁by	-459
▁j	-460
▁con	-461
ul	-462
▁রে	-463
▁হি	-464
▁my	-465
▁tak	-466
▁they	-467
▁রয়েছে	-468
্রে	-469
ich	-470
▁up	-471
▁all	-472
ডি	-473
est	-474
ice	-475
▁থাক	-476
হার	-477
▁whe	-478
▁কম	-479
os	-480
ol	-481
ome	-482
ল্	-483
qu	-484
▁বেশি	-485
▁জায়	-486
ap	-487
ong	-488
দিন	-489
▁কথা	-490
জা	-491
▁তিন	-492
ate	-493
▁পাঁচ	-494
res	-495
▁অন্য	-496
▁করার	-497
▁this	-498
▁which	-499
ষ্ট	-500
▁আমাকে	-501
ie	-502
ুরু	-503
পর	-504
ঙ্গ	-505
▁from	-506
ন্ট	-507
▁চাই	-508
▁চার	-509
ant	-510
▁সেখানে	-511
▁পারি	-512
▁সাথে	-513
িক্ষ	-514
বাই	-515
ষ্ঠ	-516
▁পু	-517
▁তখন	-518
▁খুবই	-519
গ্র	-520
ল্প	-521
শো	-522
▁বড়	-523
ত্য	-524
▁যখন	-525
art	-526
▁নয়	-527
ab	-528
▁এটা	-529
pp	-530
দেশ	-531
▁সঙ্গে	-532
র্ত	-533
▁ex	-534
স্ট	-535
যোগ	-536
▁চে	-537
▁বু	-538
▁জিনি	-539
▁সি	-540
▁আগে	-541
▁রকম	-542
▁এখানে	-543
চ্চ	-544
িকা	-545
▁tr	-546
▁অ্যা	-547
fe	-548
শা	-549
▁জিনিস	-550
খান	-551
▁sp	-552
য়ের	-553
▁কাছে	-554
▁were	-555
and	-556
▁one	-557
প্	-558
▁আপনা	-559
our	-560
ke	-561
▁তাই	-562
▁সম্প	-563
ধা	-564
্রা	-565
▁man	-566
▁জে	-567
▁লাগ	-568
্ম	-569
ous	-570
ুবি	-571
▁no	-572
সব	-573
রের	-574
স্থা	-575
out	-576
nt	-577
▁অর্	-578
very	-579
el	-580
▁ক্ষ	-581
▁there	-582
▁পরে	-583
ust	-584
▁হাজার	-585
ষা	-586
▁who	-587
▁করেন	-588
▁br	-589
▁al	-590
▁নেই	-591
▁ছিল	-592
▁ভার	-593
▁lo	-594
▁মনে	-595
পি	-596
em	-597
োক	-598
▁নির্	-599
▁আজ	-600
ast	-601
ort	-602
▁দেখে	-603
▁টাকা	-604
জের	-605
খে	-606
▁হুম	-607
▁ব্যবহার	-608
▁ছো	-609
▁ডা	-610
▁দেখা	-611
ন্ত্র	-612
ers	-613
ig	-614
তের	-615
ist	-616
▁said	-617
▁লাগে	-618
পুর	-619
ীব	-620
▁le	-621
শি	-622
▁রাজ	-623
▁যেতে	-624
▁দিতে	-625
▁বলতে	-626
ধান	-627
▁co	-628
▁শু	-629
ত্রে	-630
▁শে	-631
▁ro	-632
▁go	-633
▁প্রথ	-634
▁শিক্ষ	-635
▁com	-636
▁নাম	-637
তিক	-638
▁taka	-639
ূর্	-640
কের	-641
ind	-642
▁আট	-643
তার	-644
ook	-645
ন্দ্র	-646
▁পড়	-647
ন্দর	-648
মান	-649
▁জল	-650
▁int	-651
ick	-652
▁এসে	-653
ood	-654
ঞ্চ	-655
▁pl	-656
ুলে	-657
▁would	-658
▁পশ	-659
▁সাম	-660
িম	-661
▁ab	-662
▁গ্রাম	-663
▁দুই	-664
um	-665
তির	-666
ine	-667
ারে	-668
▁সরকার	-669
▁are	-670
▁অস	-671
▁খাবার	-672
ound	-673
▁kn	-674
▁them	-675
▁মাছ	-676
▁মাধ্য	-677
ুবিধা	-678
▁যাবে	-679
▁fe	-680
সের	-681
▁লো	-682
▁দেখতে	-683
মি	-684
▁আবার	-685
▁wor	-686
un	-687
▁when	-688
▁out	-689
▁if	-690
ানা	-691
▁সহ	-692
ass	-693
জ্	-694
ack	-695
ছিল	-696
▁জা	-697
sel	-698
▁cl	-699
▁their	-700
ive	-701
▁আরও	-702
▁বাই	-703
▁সমস্ত	-704
▁চলে	-705
▁সাত	-706
▁লে	-707
ough	-708
▁mis	-709
কাল	-710
ুমি	-711
▁হলে	-712
▁দেওয়া	-713
▁পুর	-714
ানের	-715
▁ছা	-716
▁সবাই	-717
েত্রে	-718
▁সুন্দর	-719
বাদ	-720
▁ধরনের	-721
th	-722
ore	-723
ace	-724
ধার	-725
▁বাড়িতে	-726
▁গাছ	-727
ঞ্	-728
▁এমন	-729
ck	-730
▁খেলা	-731
▁pro	-732
ag	-733
▁been	-734
টির	-735
▁will	-736
▁gr	-737
কৃ	-738
own	-739
▁তুমি	-740
▁ph	-741
hed	-742
▁ডি	-743
ile	-744
▁বিশ	-745
▁ar	-746
টাই	-747
োর	-748
▁qu	-749
ম্ব	-750
▁গেলে	-751
▁এছাড়া	-752
▁tim	-753
তুন	-754
▁পাওয়া	-755
ven	-756
▁পড়ে	-757
ানি	-758
তর	-759
▁what	-760
▁তৈ	-761
▁চল	-762
ূল	-763
if	-764
▁বই	-765
itt	-766
▁শা	-767
ান্ড	-768
▁জীব	-769
্ড	-770
ide	-771
▁ছে	-772
▁প্রা	-773
ইন	-774
▁নতুন	-775
▁un	-776
▁বলছি	-777
ity	-778
au	-779
ীন	-780
▁মাধ্যমে	-781
জ্ঞ	-782
শের	-783
খি	-784
▁আন	-785
▁বন্ধ	-786
▁স্ক	-787
▁বুঝ	-788
পরে	-789
▁কত	-790
ect	-791
▁রান্	-792
ক্তি	-793
▁মানুষের	-794
▁cr	-795
▁কু	-796
▁প্রথম	-797
শন	-798
▁জায়গা	-799
▁কিন	-800
▁bo	-801
▁af	-802
▁হলো	-803
▁en	-804
▁can	-805
▁ভাষা	-806
▁হল	-807
▁ব্যবস্থা	-808
চে	-809
▁মতো	-810
োল	-811
ন্ড	-812
▁হতে	-813
▁বলুন	-814
ep	-815
▁আসে	-816
ull	-817
▁শুরু	-818
▁টি	-819
▁বছ	-820
▁বিষ	-821
তাম	-822
self	-823
reat	-824
▁তৈরি	-825
▁আপনাকে	-826
▁te	-827
চার	-828
▁ধরে	-829
▁করুন	-830
▁অভি	-831
্যাল	-832
▁tw	-833
▁ag	-834
▁ফে	-835
ther	-836
্রম	-837
ঠে	-838
পে	-839
▁স্বা	-840
▁then	-841
▁পি	-842
ত্ব	-843
ure	-844
▁your	-845
চিত	-846
▁am	-847
▁যেটা	-848
▁time	-849
হে	-850
ment	-851
▁তে	-852
▁প্রধান	-853
চা	-854
ance	-855
▁দোক	-856
▁স্থ	-857
▁সমস	-858
বাস	-859
▁could	-860
▁পশ্চ	-861
▁অনুষ্ঠ	-862
য়ো	-863
▁ছয়	-864
▁some	-865
▁জায়গ	-866
▁গাড়ি	-867
▁চাল	-868
তীয়	-869
▁fl	-870
▁bl	-871
র্ম	-872
▁যোগ	-873
▁যাতে	-874
▁ইউ	-875
▁ছবি	-876
▁পেয়ে	-877
গ্রহ	-878
▁more	-879
▁ঝ	-880
শ্য	-881
▁বাচ্চ	-882
▁phone	-883
▁তারপর	-884
▁সেগুলো	-885
▁দিকে	-886
▁যাচ্ছে	-887
▁আগ	-888
▁রাজ্য	-889
চ্ছি	-890
ারি	-891
লায়	-892
▁উন্ন	-893
দ্য	-894
▁ac	-895
▁গো	-896
▁ফোন	-897
▁any	-898
▁রান্না	-899
তু	-900
ies	-901
▁পারেন	-902
োনা	-903
▁এটি	-904
▁into	-905
রণ	-906
▁জন	-907
খা	-908
▁now	-909
▁পশ্চিম	-910
▁দশ	-911
টের	-912
hing	-913
▁po	-914
▁পাখি	-915
েক	-916
▁game	-917
▁new	-918
▁চি	-919
able	-920
্লা	-921
ধারণ	-922
▁গেছে	-923
ry	-924
der	-925
▁হিসে	-926
ষণ	-927
▁লি	-928
েরকম	-929
ink	-930
are	-931
pt	-932
▁করেছি	-933
▁dis	-934
পার	-935
ুক্ত	-936
▁mad	-937
▁বো	-938
▁ক্ষেত্রে	-939
▁কল	-940
▁দাম	-941
বর্ত	-942
▁ক্যা	-943
▁জায়গায়	-944
nder	-945
▁তারপরে	-946
▁কারণে	-947
▁পর্য	-948
▁স্ব	-949
▁সাহা	-950
কালে	-951
▁বড়ো	-952
▁টে	-953
শেষ	-954
ঠা	-955
▁নিজের	-956
রু	-957
মাণ	-958
য্য	-959
নার	-960
▁ঢ	-961
▁us	-962
▁like	-963
▁পড়া	-964
▁পছ	-965
▁ওখানে	-966
▁ছোটো	-967
iv	-968
ose	-969
▁হিসেবে	-970
urn	-971
ite	-972
▁এলা	-973
▁বাংলাদেশ	-974
▁im	-975
▁sc	-976
ধু	-977
ষ্টা	-978
▁বিশ্ব	-979
▁সম্পর্	-980
▁ফি	-981
▁কর্ম	-982
age	-983
▁সাহায্য	-984
▁did	-985
ভাব	-986
ান্ত	-987
ount	-988
▁look	-989
▁গু	-990
▁ফলে	-991
▁থাকি	-992
▁প্রচ	-993
▁other	-994
▁জি	-995
ble	-996
ংশ	-997
way	-998
▁লাগবে	-999
▁ad	-1000
▁বৃ	-1001
▁পো	-1002
▁তাকে	-1003
মার	-1004
▁উৎ	-1005
▁এগুলো	-1006
▁তবে	-1007
▁than	-1008
▁আই	-1009
▁দূ	-1010
দে	-1011
▁দরকার	-1012
▁করেছে	-1013
▁উত্	-1014
▁off	-1015
▁fo	-1016
▁যাই	-1017
de	-1018
▁very	-1019
▁যারা	-1020
▁know	-1021
ress	-1022
লিশ	-1023
ought	-1024
ally	-1025
ool	-1026
সার	-1027
▁কাল	-1028
্যান	-1029
ম্প	-1030
ence	-1031
ittle	-1032
ডে	-1033
▁day	-1034
▁নিতে	-1035
wn	-1036
ro	-1037
▁শহ	-1038
▁little	-1039
▁ঘুর	-1040
▁কৃ	-1041
▁about	-1042
▁ছিলেন	-1043
▁our	-1044
ree	-1045
▁ওটা	-1046
▁over	-1047
▁ভি	-1048
▁ফা	-1049
▁সমস্যা	-1050
ীদের	-1051
ci	-1052
▁এরকম	-1053
ave	-1054
▁see	-1055
▁সাধারণ	-1056
▁বের	-1057
▁অধ	-1058
▁বিশেষ	-1059
ফি	-1060
ানোর	-1061
▁পার্	-1062
ish	-1063
লন	-1064
▁rep	-1065
▁how	-1066
▁কেন্দ্র	-1067
▁কেন	-1068
ত্যা	-1069
▁পৌ	-1070
ারাপ	-1071
▁কেউ	-1072
▁করছে	-1073
▁কোনও	-1074
▁চেষ্টা	-1075
ূর্ণ	-1076
▁খারাপ	-1077
▁শেষ	-1078
▁hand	-1079
ীত	-1080
fore	-1081
▁হো	-1082
▁per	-1083
▁রি	-1084
▁অবশ্য	-1085
▁too	-1086
ন্ত্রী	-1087
▁মন	-1088
ake	-1089
▁বুঝতে	-1090
▁has	-1091
▁after	-1092
্যান্ড	-1093
▁একজন	-1094
▁নিজে	-1095
বর	-1096
▁দ্ব	-1097
▁des	-1098
other	-1099
ঞ্জ	-1100
ড়িয়ে	-1101
av	-1102
রকম	-1103
ম্বর	-1104
▁down	-1105
ক্ষা	-1106
▁app	-1107
▁লোক	-1108
▁sm	-1109
▁hell	-1110
লাই	-1111
▁বিক	-1112
▁তাঁ	-1113
▁এছাড়াও	-1114
▁order	-1115
▁দেয়	-1116
▁খু	-1117
ভে	-1118
িকি	-1119
▁কখন	-1120
▁upon	-1121
ary	-1122
▁ভে	-1123
▁হয়তো	-1124
▁শর	-1125
মের	-1126
ডার	-1127
ামী	-1128
▁again	-1129
দান	-1130
▁বাচ্চা	-1131
ars	-1132
▁only	-1133
্যার	-1134
▁বর্	-1135
▁অসুবিধা	-1136
ণ্ড	-1137
we	-1138
▁ঘট	-1139
▁মহ	-1140
li	-1141
য়োজন	-1142
▁hello	-1143
▁হ্যালো	-1144
oss	-1145
▁পছন্দ	-1146
ty	-1147
▁str	-1148
▁ছেলে	-1149
ire	-1150
▁song	-1151
ber	-1152
ক্ষণ	-1153
▁এত	-1154
▁শিক্ষা	-1155
ুট	-1156
▁সমা	-1157
▁ম্যা	-1158
▁শিল্প	-1159
▁বর্ত	-1160
▁great	-1161
বল	-1162
▁sch	-1163
বী	-1164
ছিলো	-1165
▁বছর	-1166
ness	-1167
▁back	-1168
ামা	-1169
▁two	-1170
ord	-1171
▁থাকবে	-1172
▁আপনাদের	-1173
ভাগ	-1174
▁বার	-1175
▁সুবিধা	-1176
ূন্য	-1177
▁এবার	-1178
ue	-1179
দী	-1180
▁দিক	-1181
▁গত	-1182
▁ডে	-1183
▁res	-1184
▁say	-1185
▁চাষ	-1186
কুর	-1187
▁যাওয়ার	-1188
ings	-1189
▁যেখানে	-1190
ষ্টি	-1191
▁আঁ	-1192
▁pe	-1193
▁should	-1194
▁শূন্য	-1195
ved	-1196
িতা	-1197
▁pass	-1198
▁অবশ্যই	-1199
ather	-1200
▁প্রায়	-1201
▁করলে	-1202
▁যেন	-1203
স্থ্য	-1204
দার	-1205
ান্য	-1206
▁thr	-1207
per	-1208
▁পাঠ	-1209
▁full	-1210
▁মুখ	-1211
▁fir	-1212
▁its	-1213
▁well	-1214
▁pre	-1215
তেই	-1216
ব্য	-1217
▁পাই	-1218
▁বাড়ির	-1219
▁রো	-1220
▁good	-1221
▁প্রত্য	-1222
tain	-1223
▁স্থান	-1224
▁before	-1225
▁সম্পর্কে	-1226
▁price	-1227
▁comp	-1228
স্তা	-1229
ful	-1230
▁আল	-1231
িশ	-1232
▁school	-1233
ious	-1234
▁মূল	-1235
▁নির্বা	-1236
▁গান	-1237
▁পুজ	-1238
▁বসে	-1239
ঙ্ক	-1240
▁বাস	-1241
▁দুর্	-1242
তন	-1243
▁পড়াশ	-1244
▁পশ্চিমব	-1245
রো	-1246
▁জানা	-1247
▁part	-1248
ign	-1249
ang	-1250
চি	-1251
▁হাস	-1252
থায়	-1253
te	-1254
কায়	-1255
টাকে	-1256
▁ছিলো	-1257
ণের	-1258
▁long	-1259
ild	-1260
▁স্বাস্থ্য	-1261
ark	-1262
▁ছোট	-1263
▁dr	-1264
▁করেছেন	-1265
িয়	-1266
▁made	-1267
▁old	-1268
▁১	-1269
ud	-1270
মু	-1271
▁নিয়	-1272
▁শুন	-1273
▁সম্	-1274
▁হতো	-1275
▁দেখি	-1276
▁আলা	-1277
ক্ষে	-1278
▁gl	-1279
ated	-1280
▁every	-1281
▁অর্থ	-1282
▁কৃষ	-1283
▁যার	-1284
▁পরিমাণ	-1285
স্য	-1286
কেট	-1287
icket	-1288
▁এগ	-1289
▁বিষয়	-1290
▁men	-1291
▁miss	-1292
▁em	-1293
▁কয়ে	-1294
▁তুল	-1295
▁must	-1296
্ল	-1297
ward	-1298
act	-1299
▁খাওয়া	-1300
▁ye	-1301
দ্যাল	-1302
▁অন্যান্য	-1303
▁অবস্থ	-1304
হেতু	-1305
▁তাদেরকে	-1306
পতি	-1307
প্র	-1308
ুই	-1309
▁সেরকম	-1310
▁পৌঁ	-1311
পত্র	-1312
▁first	-1313
▁আজকে	-1314
▁way	-1315
▁হিসা	-1316
▁where	-1317
িকার	-1318
▁mu	-1319
▁ছাড়া	-1320
▁love	-1321
▁গুরু	-1322
িত্র	-1323
ft	-1324
ions	-1325
▁মাঝ	-1326
▁even	-1327
িক্	-1328
▁প্রয়োজন	-1329
▁never	-1330
▁থেকেই	-1331
▁sl	-1332
▁ser	-1333
▁rem	-1334
▁বাইরে	-1335
▁হে	-1336
ase	-1337
ণা	-1338
▁sir	-1339
▁pres	-1340
▁pol	-1341
▁ক্রি	-1342
খ্যা	-1343
প্ত	-1344
▁ey	-1345
▁spe	-1346
ach	-1347
▁এস	-1348
ভার	-1349
▁পর্যন্ত	-1350
▁কয়েক	-1351
▁shop	-1352
▁সদ	-1353
▁রেখে	-1354
▁আব	-1355
▁বৈ	-1356
▁here	-1357
▁আলাদা	-1358
led	-1359
▁স্ট	-1360
▁আরো	-1361
ায়ের	-1362
ভব	-1363
▁নম্বর	-1364
▁come	-1365
orn	-1366
ren	-1367
ষে	-1368
▁ফুল	-1369
▁mister	-1370
▁think	-1371
ans	-1372
দন	-1373
দম	-1374
▁প্রচুর	-1375
▁may	-1376
▁তুলে	-1377
▁cont	-1378
▁বলেন	-1379
▁under	-1380
▁ট্রে	-1381
▁কলে	-1382
ady	-1383
ise	-1384
িকিৎ	-1385
▁অংশ	-1386
▁such	-1387
র্থ	-1388
▁করেছিলাম	-1389
ন্স	-1390
▁যাওয়া	-1391
▁bet	-1392
▁work	-1393
▁চিকিৎ	-1394
▁কিনে	-1395
ছিলেন	-1396
▁খো	-1397
▁let	-1398
ail	-1399
▁ভাষ	-1400
▁বাগ	-1401
▁বস	-1402
মন্ত্রী	-1403
▁much	-1404
▁came	-1405
▁যেহেতু	-1406
▁হিসাবে	-1407
বেশ	-1408
▁ভাব	-1409
িনে	-1410
▁আলো	-1411
▁গর	-1412
▁call	-1413
▁ধর্ম	-1414
▁পরিবার	-1415
▁these	-1416
স্কৃ	-1417
up	-1418
দিকে	-1419
ুধ	-1420
ার্থ	-1421
▁acc	-1422
তম	-1423
▁own	-1424
▁ভারত	-1425
ff	-1426
ath	-1427
▁খেতে	-1428
▁জন্যে	-1429
▁পারবে	-1430
্রী	-1431
▁একবার	-1432
▁দাঁ	-1433
▁কীভাবে	-1434
ক্তার	-1435
ুক	-1436
▁bec	-1437
▁বাজার	-1438
▁টাই	-1439
▁জানতে	-1440
▁পরী	-1441
▁আনন্দ	-1442
▁মাল	-1443
▁বলা	-1444
গত	-1445
▁just	-1446
ংস	-1447
ঘা	-1448
থি	-1449
স্ক	-1450
▁বন্ধু	-1451
▁ভারতের	-1452
ip	-1453
▁জেলা	-1454
সম	-1455
▁যেগুলো	-1456
▁ওষ	-1457
▁ঐ	-1458
▁দাদা	-1459
▁exp	-1460
▁সেখান	-1461
▁দোকান	-1462
▁অর্ডার	-1463
air	-1464
▁seem	-1465
▁করছি	-1466
▁শরীর	-1467
▁thought	-1468
ুদ	-1469
co	-1470
▁দেবো	-1471
llow	-1472
▁বয়	-1473
▁সো	-1474
▁বাবা	-1475
▁ভালোভাবে	-1476
ওয়	-1477
স্তে	-1478
▁রকমের	-1479
▁স্কুল	-1480
ause	-1481
▁news	-1482
▁cour	-1483
▁মেয়ে	-1484
anc	-1485
▁একদম	-1486
▁ব্যবসা	-1487
▁জাতীয়	-1488
বর্তী	-1489
পাতা	-1490
▁নাচ	-1491
▁ওষুধ	-1492
▁টু	-1493
▁life	-1494
▁তাছাড়া	-1495
ctor	-1496
▁দল	-1497
কাশ	-1498
▁উচিত	-1499
চনা	-1500
▁খেল	-1501
▁ডাক্তার	-1502
ouse	-1503
▁দুটো	-1504
ন্ম	-1505
ক্র	-1506
ank	-1507
ject	-1508
ীরা	-1509
বাহ	-1510
▁বিক্রি	-1511
য়াম	-1512
্যাপ	-1513
▁করব	-1514
▁যু	-1515
▁উঠে	-1516
▁ঘো	-1517
▁imp	-1518
▁বলি	-1519
cl	-1520
শু	-1521
টাও	-1522
▁দক্ষ	-1523
▁প্রত্যেক	-1524
র্ব	-1525
▁ইন	-1526
▁যাব	-1527
▁ঢা	-1528
▁আস্তে	-1529
▁পশ্চিমবঙ্গ	-1530
▁পুজো	-1531
▁দেশের	-1532
▁through	-1533
▁গুরুত্ব	-1534
কর্	-1535
▁অভ	-1536
▁কলকা	-1537
▁সাঁ	-1538
int	-1539
র্ট	-1540
ving	-1541
র্শ	-1542
তায়	-1543
aw	-1544
েরে	-1545
▁get	-1546
▁দিই	-1547
▁ছাত্র	-1548
▁রাখতে	-1549
▁নানা	-1550
বু	-1551
▁হাতে	-1552
▁head	-1553
▁himself	-1554
রাম	-1555
ীতি	-1556
▁might	-1557
az	-1558
▁ob	-1559
▁সর	-1560
▁সামনে	-1561
▁জানিয়ে	-1562
দেরকে	-1563
▁যত	-1564
কাউ	-1565
omet	-1566
▁জু	-1567
▁পূর্	-1568
ব্	-1569
▁ইং	-1570
▁বলছেন	-1571
▁রোগ	-1572
▁করবে	-1573
বর্	-1574
▁জীবন	-1575
লী	-1576
▁ভালোবা	-1577
গর	-1578
▁ক্লা	-1579
▁don	-1580
▁হাসপাতা	-1581
▁চো	-1582
▁দেখুন	-1583
▁মন্দ	-1584
▁লক্ষ	-1585
▁inter	-1586
▁সময়ে	-1587
iz	-1588
▁হওয়ার	-1589
▁খর	-1590
▁তোমার	-1591
▁পুরো	-1592
▁ধরুন	-1593
▁প্রশ	-1594
▁দেওয়ার	-1595
▁bel	-1596
ily	-1597
ায়ী	-1598
কো	-1599
পূর্ণ	-1600
▁mat	-1601
▁হিন্দ	-1602
▁তাল	-1603
▁দেশ	-1604
সিক	-1605
▁jo	-1606
▁করবো	-1607
▁গ্রামের	-1608
ix	-1609
মিক	-1610
▁উপর	-1611
ষ্ট্র	-1612
▁mar	-1613
▁করলাম	-1614
▁ভূ	-1615
স্কার	-1616
▁আসতে	-1617
▁অনুষ্ঠান	-1618
য়ান	-1619
▁কেমন	-1620
▁ব্যাপার	-1621
▁দেবেন	-1622
▁উঠ	-1623
▁police	-1624
মানে	-1625
▁সাং	-1626
▁wat	-1627
ried	-1628
▁যাবো	-1629
▁সক	-1630
▁জানি	-1631
ub	-1632
য়ন	-1633
ked	-1634
▁মোবাই	-1635
▁ঘুরতে	-1636
▁most	-1637
▁আপনারা	-1638
▁লাই	-1639
▁অনেকে	-1640
▁পয়	-1641
▁car	-1642
▁অপ	-1643
▁মার্	-1644
▁শুধু	-1645
▁উত্তর	-1646
ক্ট	-1647
টিং	-1648
নায়	-1649
▁cons	-1650
▁নির্বাচ	-1651
▁হয়েছিল	-1652
▁খুঁ	-1653
▁eyes	-1654
▁এখান	-1655
▁face	-1656
মেন্ট	-1657
পড়	-1658
ng	-1659
amp	-1660
ব্ব	-1661
ষ্কার	-1662
▁turn	-1663
ন্টার	-1664
▁make	-1665
▁last	-1666
কেল	-1667
▁গল্প	-1668
▁night	-1669
কু	-1670
▁উন্নত	-1671
▁করবেন	-1672
▁সরকারি	-1673
▁আগামী	-1674
▁বহ	-1675
▁মৃ	-1676
▁দোকানে	-1677
▁ইতি	-1678
▁সাই	-1679
ered	-1680
▁প্রতিষ্ঠ	-1681
▁সম্ম	-1682
▁মোটা	-1683
▁those	-1684
▁তাড়া	-1685
▁wr	-1686
▁সবজি	-1687
▁সারা	-1688
পের	-1689
▁এম	-1690
▁ভাই	-1691
▁মাঝে	-1692
▁went	-1693
▁beg	-1694
▁কাছ	-1695
▁কোথা	-1696
পো	-1697
▁room	-1698
▁পালন	-1699
ves	-1700
▁দেব	-1701
ছো	-1702
▁wom	-1703
▁comm	-1704
ons	-1705
আই	-1706
▁কাজে	-1707
▁শুনে	-1708
▁শিখ	-1709
▁away	-1710
▁দী	-1711
▁সাঁতার	-1712
▁house	-1713
▁একা	-1714
▁ঠা	-1715
▁পরিচা	-1716
▁প্রিয়	-1717
▁doctor	-1718
বিদ্যাল	-1719
▁দেন	-1720
▁হোক	-1721
▁দূর	-1722
ened	-1723
▁coll	-1724
▁তাঁর	-1725
▁মাসে	-1726
▁জেলার	-1727
শ্চ	-1728
ction	-1729
▁somet	-1730
▁সদস্য	-1731
▁ভো	-1732
▁young	-1733
▁বাঁ	-1734
▁থাকলে	-1735
▁পশু	-1736
▁সভা	-1737
▁কোথায়	-1738
ied	-1739
্যের	-1740
ared	-1741
▁সকালে	-1742
▁এলাকায়	-1743
ory	-1744
▁কিছুই	-1745
▁প্রে	-1746
যু	-1747
▁ইত্যা	-1748
▁দিনের	-1749
▁কালকে	-1750
▁লেগে	-1751
▁সার	-1752
▁ওর	-1753
▁ওপর	-1754
্রু	-1755
▁অ্যাকাউ	-1756
▁পায়	-1757
▁ইত্যাদি	-1758
▁স্কুলে	-1759
▁তাতে	-1760
ian	-1761
▁ফো	-1762
▁tell	-1763
য়াল	-1764
▁road	-1765
▁ind	-1766
▁হাত	-1767
▁ent	-1768
▁জামা	-1769
▁এইভাবে	-1770
▁প্রক	-1771
্ন	-1772
▁while	-1773
তাড়ি	-1774
কর	-1775
▁নার	-1776
▁ফুট	-1777
▁still	-1778
▁ho	-1779
র্তি	-1780
▁থাকা	-1781
প্রি	-1782
▁হার	-1783
বের	-1784
ঙা	-1785
▁প্রথমে	-1786
▁hot	-1787
▁পুলিশ	-1788
▁নান	-1789
▁কুড়ি	-1790
man	-1791
les	-1792
less	-1793
ুরি	-1794
▁many	-1795
▁সবচে	-1796
od	-1797
দ্ধে	-1798
▁তাড়াতাড়ি	-1799
▁heart	-1800
▁নিজ	-1801
▁without	-1802
তৃ	-1803
▁সকাল	-1804
▁op	-1805
বেলা	-1806
▁সবচেয়ে	-1807
▁বিশ্ববিদ্যাল	-1808
লিয়া	-1809
▁take	-1810
▁থাকতে	-1811
▁book	-1812
▁অনেকটা	-1813
্যে	-1814
▁সবার	-1815
▁যান	-1816
▁সুযোগ	-1817
▁যুক্ত	-1818
▁light	-1819
▁পারবেন	-1820
▁বিষয়ে	-1821
গ্রাম	-1822
orm	-1823
▁চায়	-1824
▁জন্ম	-1825
▁খেয়ে	-1826
▁ret	-1827
▁shall	-1828
hes	-1829
▁কবে	-1830
▁খবর	-1831
▁অঞ্চ	-1832
ন্তর্	-1833
লিত	-1834
▁২	-1835
▁যেই	-1836
▁পঞ্চ	-1837
▁বর্তমানে	-1838
্ট	-1839
ult	-1840
▁উল্	-1841
▁present	-1842
▁word	-1843
▁ma	-1844
▁কমি	-1845
▁ঝা	-1846
▁mob	-1847
▁yet	-1848
েরা	-1849
iend	-1850
ows	-1851
▁bi	-1852
▁char	-1853
oice	-1854
▁আমাদেরকে	-1855
▁hu	-1856
▁রাস্তা	-1857
▁যোগা	-1858
▁supp	-1859
▁att	-1860
টায়	-1861
প্তা	-1862
▁ওরা	-1863
▁bre	-1864
গুলির	-1865
▁দক্ষি	-1866
▁নেওয়া	-1867
▁আহ	-1868
▁বাড়	-1869
তেও	-1870
ia	-1871
▁friend	-1872
▁রাখা	-1873
cc	-1874
্যাস	-1875
ীরে	-1876
▁রাজন	-1877
▁নদী	-1878
▁দিনে	-1879
▁once	-1880
▁want	-1881
▁mobile	-1882
▁একই	-1883
▁মিলে	-1884
▁মহি	-1885
ton	-1886
ition	-1887
▁সত্য	-1888
হিত	-1889
▁being	-1890
▁দিলে	-1891
▁right	-1892
▁found	-1893
▁end	-1894
▁বেড়ে	-1895
▁gu	-1896
▁করো	-1897
▁ঘরে	-1898
▁কোথাও	-1899
▁এমনি	-1900
ড়াতে	-1901
▁গ্রামে	-1902
ens	-1903
▁বিজ্ঞ	-1904
ople	-1905
▁দিয়েছে	-1906
ange	-1907
ৈতিক	-1908
ক্স	-1909
▁cap	-1910
▁count	-1911
mo	-1912
▁এইসব	-1913
▁ওয়া	-1914
▁সম্ভব	-1915
oth	-1916
▁ঘটনা	-1917
▁though	-1918
▁উনি	-1919
vent	-1920
েরি	-1921
ew	-1922
্রাই	-1923
▁col	-1924
▁নিজেদের	-1925
▁people	-1926
▁প্রকাশ	-1927
ict	-1928
▁sw	-1929
▁টাকার	-1930
▁বান	-1931
ors	-1932
▁এখনও	-1933
ffe	-1934
▁পূর্ব	-1935
সং	-1936
▁দক্ষিণ	-1937
▁put	-1938
▁foot	-1939
▁সাধারণত	-1940
োধ	-1941
শী	-1942
▁গ্রহ	-1943
বন্ধ	-1944
▁class	-1945
▁চিকিৎসা	-1946
▁bus	-1947
▁স্যার	-1948
▁পরীক্ষা	-1949
▁পাহা	-1950
igh	-1951
▁এসব	-1952
্যান্	-1953
▁ke	-1954
▁সেটি	-1955
▁nothing	-1956
▁খেলে	-1957
osp	-1958
▁মহা	-1959
য়ারি	-1960
▁ever	-1961
▁arm	-1962
▁খেলার	-1963
line	-1964
▁far	-1965
▁ভিত	-1966
▁পরিষ্কার	-1967
ting	-1968
▁উদ্	-1969
▁father	-1970
▁অনেকটাই	-1971
▁three	-1972
▁অত	-1973
ীপুর	-1974
▁eng	-1975
িত্ব	-1976
▁মোবাইল	-1977
▁কাট	-1978
▁পরিবর্ত	-1979
▁place	-1980
তিতে	-1981
▁দায়	-1982
▁ইয়ে	-1983
▁সরকারের	-1984
দ্যু	-1985
▁ব্যাপ	-1986
▁চলছে	-1987
▁তেমন	-1988
▁মিডি	-1989
▁সপ্তা	-1990
▁child	-1991
▁গুরুত্বপূর্ণ	-1992
▁শাড়ি	-1993
▁ফল	-1994
▁রঙ	-1995
▁সভাপতি	-1996
ট্র	-1997
▁স্ম	-1998
▁দ্বারা	-1999
▁অভিযোগ	-2000
▁saw	-2001
জিত	-2002
▁ইস	-2003
▁যোগাযোগ	-2004
▁ব্যক্তি	-2005
নিক	-2006
▁বিন	-2007
▁gen	-2008
▁বিরু	-2009
▁চালু	-2010
▁অফি	-2011
▁মন্দির	-2012
▁শেখ	-2013
▁আছি	-2014
▁colle	-2015
▁পারিনি	-2016
▁বিভাগ	-2017
ভূ	-2018
▁হাঁ	-2019
ধি	-2020
▁সূ	-2021
▁ফের	-2022
▁জীবনে	-2023
ible	-2024
▁আগের	-2025
▁বর্তমান	-2026
▁পরবর্তী	-2027
get	-2028
▁বিরুদ্ধে	-2029
▁আসুন	-2030
ib	-2031
▁inst	-2032
ক্ষেত্রে	-2033
▁che	-2034
▁প্রভাব	-2035
▁পদ	-2036
▁খেলাধু	-2037
▁এতে	-2038
ংক	-2039
্রমণ	-2040
্বাস	-2041
▁mind	-2042
ত্রী	-2043
▁চলচ্চ	-2044
▁কাপড়	-2045
▁পড়তে	-2046
ায়ক	-2047
irl	-2048
▁পনের	-2049
ock	-2050
▁টিকা	-2051
▁four	-2052
▁hal	-2053
ধে	-2054
নাথ	-2055
▁শিশু	-2056
▁ple	-2057
▁উৎসব	-2058
▁college	-2059
alk	-2060
▁inte	-2061
▁train	-2062
লেট	-2063
▁পান	-2064
▁ছাড়	-2065
▁ভুল	-2066
▁mom	-2067
▁পরিচাল	-2068
▁লেখা	-2069
▁dist	-2070
▁happ	-2071
▁নিশ্চ	-2072
▁meet	-2073
▁rest	-2074
▁moment	-2075
▁war	-2076
▁sur	-2077
▁পারবো	-2078
▁looked	-2079
▁ছু	-2080
▁quest	-2081
▁ইতিহা	-2082
▁এগিয়ে	-2083
ূপ	-2084
▁গিয়েছে	-2085
▁পাশে	-2086
▁সার্	-2087
▁পনেরো	-2088
▁সংবাদ	-2089
ital	-2090
▁same	-2091
ical	-2092
▁নিয়ম	-2093
▁অনুষ্ঠানে	-2094
▁another	-2095
▁আধ	-2096
▁তথ	-2097
▁স্প	-2098
ডিও	-2099
বহ	-2100
▁কাজের	-2101
ne	-2102
▁নামে	-2103
▁nat	-2104
ished	-2105
▁রু	-2106
▁উচ্চ	-2107
▁sub	-2108
ড়াই	-2109
▁আসবে	-2110
▁bike	-2111
▁পাঠিয়ে	-2112
▁pers	-2113
াজ	-2114
▁পূ	-2115
▁পুরু	-2116
▁দিচ্ছে	-2117
কদের	-2118
চ্ছ	-2119
স্থি	-2120
▁আসছে	-2121
▁মিল	-2122
▁বাইক	-2123
গ্রহণ	-2124
ক্য	-2125
▁জানান	-2126
জনের	-2127
▁বাঙা	-2128
▁কেটে	-2129
▁যেরকম	-2130
▁পয়সা	-2131
মুটি	-2132
ণ্য	-2133
▁হয়নি	-2134
▁হন	-2135
pe	-2136
▁cricket	-2137
▁গরম	-2138
ন্টে	-2139
▁মোটামুটি	-2140
কিং	-2141
▁বেশির	-2142
ling	-2143
গের	-2144
▁সুস্থ	-2145
▁টো	-2146
dd	-2147
▁পারছি	-2148
লেই	-2149
▁দৌ	-2150
্যাক	-2151
▁seemed	-2152
েশন	-2153
▁girl	-2154
thing	-2155
▁নেবেন	-2156
▁hotel	-2157
uck	-2158
▁set	-2159
▁নিই	-2160
ted	-2161
ations	-2162
▁সম্প্র	-2163
▁একশো	-2164
লেখ	-2165
গুলোর	-2166
কারী	-2167
ash	-2168
স্ব	-2169
▁ফাই	-2170
▁world	-2171
হি	-2172
▁আইন	-2173
▁জলের	-2174
▁রাজ্যের	-2175
ped	-2176
▁ওয়ে	-2177
ways	-2178
তী	-2179
▁log	-2180
▁reg	-2181
▁পৃ	-2182
▁got	-2183
arly	-2184
পু	-2185
ফল	-2186
ত্ম	-2187
▁why	-2188
ertain	-2189
▁পরিবর্তন	-2190
▁গিয়েছিলাম	-2191
▁boy	-2192
▁মিনি	-2193
▁বারো	-2194
▁missus	-2195
▁hel	-2196
▁ide	-2197
▁ভর্তি	-2198
ঙ্গা	-2199
▁তুই	-2200
▁বোঝ	-2201
ince	-2202
▁শুনতে	-2203
▁পঞ্চা	-2204
▁প্রদান	-2205
▁bar	-2206
▁god	-2207
ner	-2208
▁চেয়ার	-2209
▁left	-2210
ণী	-2211
▁বাঙালি	-2212
▁ব্যাঙ্ক	-2213
এস	-2214
▁inv	-2215
▁ঠিকঠা	-2216
▁find	-2217
▁ওদের	-2218
▁ঠিকঠাক	-2219
▁কর্	-2220
▁বেরিয়ে	-2221
▁বর্ধ	-2222
▁খেলতে	-2223
টিতে	-2224
▁ধার	-2225
▁something	-2226
▁তথ্য	-2227
▁উপজে	-2228
▁হই	-2229
ঠিক	-2230
▁মাম	-2231
▁give	-2232
▁মৃত্য	-2233
▁দলের	-2234
▁পেতে	-2235
▁side	-2236
▁স্থানীয়	-2237
▁শীত	-2238
erv	-2239
▁ফেলে	-2240
▁পশ্চিমবঙ্গের	-2241
▁ধান	-2242
▁সঠিক	-2243
▁বৃদ্ধ	-2244
▁follow	-2245
▁লাগা	-2246
ope	-2247
টাল	-2248
যুক্ত	-2249
▁ক্রিকেট	-2250
করি	-2251
▁going	-2252
▁পৌঁছে	-2253
▁উল্লেখ	-2254
▁ঐতি	-2255
▁feel	-2256
ower	-2257
▁six	-2258
▁ভারতীয়	-2259
▁করেছিলেন	-2260
▁rel	-2261
▁conf	-2262
ডা	-2263
▁অভিজ্ঞ	-2264
▁prof	-2265
ুখ	-2266
ph	-2267
▁এন	-2268
▁ঠাকুর	-2269
▁উপরে	-2270
সল	-2271
▁took	-2272
ait	-2273
▁কোম্প	-2274
গি	-2275
▁ভালোবাসি	-2276
▁ass	-2277
ret	-2278
▁কব	-2279
▁পরিষে	-2280
▁ভাষার	-2281
শান	-2282
▁always	-2283
▁পরিবারের	-2284
▁সহজ	-2285
▁home	-2286
enc	-2287
▁দুধ	-2288
▁বেশিরভাগ	-2289
▁বাগান	-2290
▁things	-2291
▁ট্র	-2292
ান্ধ	-2293
লিং	-2294
▁mus	-2295
▁লাভ	-2296
▁ঢাকা	-2297
▁inf	-2298
▁মাস	-2299
▁পরিবেশ	-2300
▁আবে	-2301
রিয়	-2302
▁appe	-2303
সময়	-2304
▁mother	-2305
▁পড়াশোনা	-2306
▁নো	-2307
্রেস	-2308
▁course	-2309
gg	-2310
▁যাবেন	-2311
▁সংস্কৃ	-2312
▁ওখান	-2313
▁পরিমাণে	-2314
শাস	-2315
▁dead	-2316
▁ফটো	-2317
▁return	-2318
▁ঘা	-2319
era	-2320
▁ক্যাব	-2321
▁sat	-2322
জর	-2323
েন্ট	-2324
▁চ্যা	-2325
▁প্	-2326
্যায়	-2327
ার্জ	-2328
▁শ্রী	-2329
rew	-2330
▁রাস্ত	-2331
▁door	-2332
▁প্রযু	-2333
▁বাংলাদেশের	-2334
▁বলব	-2335
▁জন্যই	-2336
▁জ্	-2337
▁ইসলাম	-2338
▁ডেলি	-2339
▁চলচ্চিত্র	-2340
▁knew	-2341
▁half	-2342
▁হাসপাতালে	-2343
arge	-2344
ched	-2345
land	-2346
▁hosp	-2347
▁woman	-2348
▁আসলে	-2349
▁ভাড়া	-2350
▁few	-2351
▁deli	-2352
▁রাতে	-2353
▁সিদ্ধ	-2354
▁unt	-2355
lic	-2356
▁তারি	-2357
▁hands	-2358
vers	-2359
▁আসবেন	-2360
▁শিখে	-2361
▁এবারে	-2362
ডের	-2363
ফা	-2364
▁অফ	-2365
▁পাকি	-2366
aught	-2367
▁ঘর	-2368
▁তেল	-2369
▁poss	-2370
টন	-2371
ন্ডি	-2372
▁কলকাতা	-2373
▁বহু	-2374
gr	-2375
▁দেবে	-2376
▁কার্য	-2377
▁অতি	-2378
▁পড়বে	-2379
▁নিউ	-2380
▁আরেক	-2381
▁hospital	-2382
▁চান	-2383
ীণ	-2384
ual	-2385
▁লক্ষ্য	-2386
▁শিক্ষক	-2387
iet	-2388
▁mon	-2389
▁একে	-2390
▁থাকার	-2391
দিনীপুর	-2392
▁সৌ	-2393
▁পাশা	-2394
▁বলছিলাম	-2395
▁ans	-2396
▁কলেজ	-2397
▁question	-2398
▁told	-2399
▁thing	-2400
▁এসেছে	-2401
▁এতো	-2402
▁মেদিনীপুর	-2403
ating	-2404
▁form	-2405
▁মুখ্য	-2406
▁ins	-2407
▁প্যা	-2408
পনা	-2409
▁দূরে	-2410
▁plan	-2411
▁soon	-2412
▁প্রতিযোগ	-2413
▁বিদ্যু	-2414
সায়	-2415
▁দায়িত্ব	-2416
ভোগ	-2417
▁years	-2418
ger	-2419
▁এক্	-2420
▁পাকিস্ত	-2421
cle	-2422
র্শন	-2423
▁নির্বাচন	-2424
ুদ্র	-2425
মো	-2426
▁তালিকা	-2427
▁design	-2428
ধীন	-2429
▁dri	-2430
▁wind	-2431
▁মাংস	-2432
▁আপ	-2433
rest	-2434
পাশি	-2435
▁against	-2436
▁জেলায়	-2437
▁মারা	-2438
ters	-2439
▁সেক্ষেত্রে	-2440
নো	-2441
▁চালা	-2442
▁চাকরি	-2443
▁পাশাপাশি	-2444
ning	-2445
▁pain	-2446
▁বাজারে	-2447
▁kind	-2448
▁heard	-2449
রোধ	-2450
▁শী	-2451
▁cle	-2452
▁দেশে	-2453
▁গণ	-2454
▁ভাবে	-2455
▁মার	-2456
ently	-2457
▁অ্যাড	-2458
▁dif	-2459
aking	-2460
▁yes	-2461
▁ক্ষতি	-2462
▁P	-2463
▁sy	-2464
▁z	-2465
▁gener	-2466
▁bank	-2467
▁করোনা	-2468
▁ভী	-2469
aut	-2470
▁because	-2471
most	-2472
▁একদিন	-2473
▁দ্বিত	-2474
স্টার	-2475
▁দুটি	-2476
▁আলোচনা	-2477
▁পড়াশুন	-2478
মূল	-2479
▁sil	-2480
▁রাখে	-2481
▁min	-2482
▁নেতা	-2483
▁চিন্ত	-2484
▁এটাই	-2485
▁বিয়ে	-2486
▁তৃ	-2487
ired	-2488
▁report	-2489
▁অনুগ্রহ	-2490
▁অ্যাকাউন্ট	-2491
িরি	-2492
▁গেল	-2493
র্ক	-2494
▁চু	-2495
▁hard	-2496
▁belie	-2497
ণ্	-2498
ither	-2499
দু	-2500
েশা	-2501
▁cam	-2502
▁রবী	-2503
▁নিরা	-2504
▁থাকেন	-2505
▁খুঁজ	-2506
▁ইউনি	-2507
uth	-2508
▁দেখেছি	-2509
lo	-2510
▁সর্ব	-2511
▁মানুষকে	-2512
▁care	-2513
▁দেখার	-2514
স্টে	-2515
▁ঘটে	-2516
ra	-2517
▁দাঁড়িয়ে	-2518
ন্তর্জা	-2519
ণি	-2520
▁ste	-2521
▁আঁকা	-2522
elt	-2523
ying	-2524
▁হলেও	-2525
▁leave	-2526
্যানে	-2527
▁act	-2528
iness	-2529
aps	-2530
▁ওঠে	-2531
▁কষ্ট	-2532
▁পরিষেবা	-2533
যায়ী	-2534
▁hour	-2535
▁যেসব	-2536
▁আন্তর্জা	-2537
▁রবীন্দ্র	-2538
▁পদ্ধ	-2539
▁পক্ষে	-2540
▁আমিও	-2541
▁বছরের	-2542
▁pat	-2543
▁চেয়ে	-2544
▁নেয়	-2545
▁পরিস্থি	-2546
cept	-2547
▁দ্বিতীয়	-2548
▁each	-2549
▁white	-2550
ined	-2551
▁সিনে	-2552
▁সৃ	-2553
▁প্লা	-2554
▁better	-2555
▁নাকি	-2556
▁করছেন	-2557
রিয়ানি	-2558
▁দাবি	-2559
রকারি	-2560
▁বিরিয়ানি	-2561
▁পারব	-2562
▁পার্থ	-2563
▁দৃ	-2564
ার্ট	-2565
net	-2566
▁কিং	-2567
▁রাখছি	-2568
ott	-2569
ুমা	-2570
লিক	-2571
▁উদ	-2572
ল্যান্ড	-2573
▁নাম্ব	-2574
▁মহিলা	-2575
▁enough	-2576
▁বাচ্চাদের	-2577
▁পেয়েছি	-2578
ান্স	-2579
এন	-2580
▁কখনো	-2581
▁সংগ	-2582
▁বার্	-2583
▁ticket	-2584
▁খরচ	-2585
▁মুর	-2586
▁কৃষি	-2587
▁রাষ্ট্র	-2588
দ্র	-2589
▁ভাষায়	-2590
▁pay	-2591
▁ter	-2592
▁আলু	-2593
ফে	-2594
ial	-2595
বির	-2596
ream	-2597
ঠের	-2598
▁গ্রহণ	-2599
▁অভিজ্ঞতা	-2600
▁কন	-2601
ত্তি	-2602
▁শহরের	-2603
োনার	-2604
▁আগামীকাল	-2605
▁অবস্থা	-2606
টক	-2607
▁tre	-2608
▁read	-2609
▁আন্তর্জাতিক	-2610
▁ঋ	-2611
করণ	-2612
gn	-2613
▁যাচ্ছি	-2614
▁দেখছি	-2615
ised	-2616
▁আসার	-2617
▁মত	-2618
ত্রা	-2619
▁run	-2620
▁ঘুরে	-2621
▁bu	-2622
▁কমে	-2623
▁কাউ	-2624
oke	-2625
ক্তির	-2626
▁card	-2627
▁idea	-2628
▁উদ্য	-2629
cess	-2630
▁সন্ধ	-2631
▁দেখলাম	-2632
▁hum	-2633
▁সুর	-2634
▁cur	-2635
টিকে	-2636
খ্যাত	-2637
মতা	-2638
▁বিপ	-2639
▁করছো	-2640
স্তু	-2641
▁গ্রামীণ	-2642
▁sure	-2643
ত্ন	-2644
▁শহরে	-2645
▁সঙ্গ	-2646
▁বর্ধমান	-2647
▁ফ্যা	-2648
▁hor	-2649
▁গেছি	-2650
▁বললাম	-2651
▁ফাঁ	-2652
▁eight	-2653
▁পুকুর	-2654
▁পেরে	-2655
▁ভীষণ	-2656
▁keep	-2657
▁ভালোই	-2658
▁সত্যি	-2659
ন্সি	-2660
▁done	-2661
▁হয়েছিলো	-2662
▁উন্নতি	-2663
▁টাইম	-2664
so	-2665
een	-2666
▁অধ্যাপ	-2667
▁মেয়ের	-2668
▁সাংস্কৃ	-2669
▁swe	-2670
▁quite	-2671
▁certain	-2672
ever	-2673
▁পুরস্কার	-2674
uc	-2675
▁সবসময়	-2676
▁দিদি	-2677
ndred	-2678
কৃত	-2679
স্থিত	-2680
▁অনলাই	-2681
▁hundred	-2682
oub	-2683
▁el	-2684
▁মধ্যেই	-2685
▁occ	-2686
▁sk	-2687
ier	-2688
▁নাই	-2689
▁আত্ম	-2690
▁morn	-2691
▁কতো	-2692
▁নানান	-2693
ড়ার	-2694
▁অর্থন	-2695
▁প্রব	-2696
▁add	-2697
ভাবেই	-2698
▁camera	-2699
প্রিয়	-2700
▁delivery	-2701
▁সর্	-2702
▁এইগুলো	-2703
▁লিখ	-2704
▁কখনও	-2705
▁পাহাড়	-2706
▁প্রধানমন্ত্রী	-2707
aint	-2708
▁খোলা	-2709
ষণা	-2710
▁ed	-2711
▁prop	-2712
▁যথে	-2713
▁এলাকা	-2714
▁দিচ্ছি	-2715
▁সাংস্কৃতিক	-2716
▁কাটা	-2717
▁অধ্যাপক	-2718
সর	-2719
▁লোকের	-2720
▁প্রশাস	-2721
▁অনুযায়ী	-2722
লির	-2723
aza	-2724
▁কঠ	-2725
▁দুর্গা	-2726
যো	-2727
▁থেকেও	-2728
ন্দের	-2729
ense	-2730
▁অবস্থিত	-2731
▁পার্থক্য	-2732
ভারি	-2733
▁রাখার	-2734
▁হাল	-2735
xt	-2736
▁আশ	-2737
▁বাহ	-2738
▁আশে	-2739
▁seen	-2740
▁এনে	-2741
ম্যান	-2742
▁চিন্তা	-2743
▁হিন্দু	-2744
▁সী	-2745
ার্জি	-2746
▁আদা	-2747
▁শহর	-2748
▁যথেষ্ট	-2749
▁baza	-2750
ru	-2751
যা	-2752
ball	-2753
▁লেখ	-2754
▁par	-2755
▁জানে	-2756
▁bazaar	-2757
▁ফিরে	-2758
▁vis	-2759
▁অন্যতম	-2760
▁উপল	-2761
ম্	-2762
▁কেনা	-2763
▁মশ	-2764
▁pur	-2765
▁কার্ড	-2766
▁গাই	-2767
▁water	-2768
▁আসা	-2769
▁জো	-2770
ষ্ণ	-2771
গুলোকে	-2772
▁পর্যা	-2773
▁সংখ্যা	-2774
▁সম্মুখ	-2775
▁felt	-2776
▁ir	-2777
▁ইচ্ছা	-2778
▁নেব	-2779
▁সালে	-2780
▁account	-2781
ung	-2782
িয়া	-2783
সহ	-2784
িনা	-2785
▁ব্র	-2786
ঙ্গল	-2787
▁best	-2788
▁ঝাড়	-2789
▁turned	-2790
▁কিছুটা	-2791
ene	-2792
▁ref	-2793
▁point	-2794
ক্সি	-2795
▁toward	-2796
▁উপস্থিত	-2797
জির	-2798
▁পাবেন	-2799
▁football	-2800
▁রেল	-2801
জ্ঞা	-2802
ond	-2803
▁morning	-2804
ps	-2805
▁lady	-2806
▁বাকি	-2807
ষ্ম	-2808
▁শো	-2809
ড়ায়	-2810
▁also	-2811
▁almost	-2812
▁প্রকল্প	-2813
▁ফু	-2814
▁এলাকার	-2815
▁হোটে	-2816
▁আশেপা	-2817
এম	-2818
▁খাওয়ার	-2819
▁তোমা	-2820
▁বেরো	-2821
▁পাঁচশো	-2822
ular	-2823
▁পণ্য	-2824
ks	-2825
▁সবাইকে	-2826
▁জিনিসটা	-2827
▁fin	-2828
▁গাছের	-2829
▁কাঁ	-2830
োনো	-2831
ট্রি	-2832
▁পোল	-2833
▁মোট	-2834
পোর্ট	-2835
▁প্রতিদিন	-2836
▁ভয়	-2837
▁সাড়ে	-2838
ৃতি	-2839
ully	-2840
সাথে	-2841
▁অংশগ্রহণ	-2842
য়ালি	-2843
▁ফুটবল	-2844
ুকে	-2845
▁cold	-2846
▁name	-2847
থেকে	-2848
ারো	-2849
ient	-2850
▁days	-2851
▁ব্যাপারে	-2852
▁মাঠে	-2853
▁আশা	-2854
▁পঞ্চাশ	-2855
▁খাই	-2856
▁এক্স	-2857
▁রাজ্যে	-2858
▁nor	-2859
▁জনপ্রিয়	-2860
▁ev	-2861
orth	-2862
▁হাই	-2863
▁among	-2864
ৃত	-2865
▁রাজনৈতিক	-2866
▁রায়	-2867
▁গতকাল	-2868
▁সেগুলি	-2869
▁আয়	-2870
ule	-2871
ween	-2872
▁both	-2873
▁ইংরে	-2874
স্ত্র	-2875
▁pa	-2876
▁until	-2877
▁having	-2878
▁pap	-2879
▁বলো	-2880
ল্লিশ	-2881
▁রাখি	-2882
▁শুনেছি	-2883
▁জমি	-2884
গো	-2885
▁বুক	-2886
▁হঠা	-2887
▁আছেন	-2888
▁শ্রে	-2889
▁between	-2890
▁বন	-2891
▁সম্মুখীন	-2892
▁সন্ত	-2893
দক	-2894
▁কুম	-2895
▁beh	-2896
▁পৃথি	-2897
▁বিভাগের	-2898
▁হওয়া	-2899
প্রা	-2900
▁sim	-2901
ont	-2902
বান	-2903
▁ধরা	-2904
▁help	-2905
▁ইতিহাস	-2906
▁lap	-2907
▁কিনতে	-2908
▁পরিবহ	-2909
ান্তর	-2910
▁dark	-2911
▁mas	-2912
▁জীবনের	-2913
▁হস	-2914
iss	-2915
ার্স	-2916
▁table	-2917
▁called	-2918
▁পাল	-2919
▁music	-2920
িনী	-2921
▁stand	-2922
▁meeting	-2923
সাই	-2924
▁হঠাৎ	-2925
▁মায়ের	-2926
▁জয়	-2927
▁সবথেকে	-2928
osed	-2929
ল্লা	-2930
▁internet	-2931
▁গ্রে	-2932
▁কেজি	-2933
▁সময়ের	-2934
▁team	-2935
▁বক্ত	-2936
dden	-2937
▁ডেলিভারি	-2938
▁একসাথে	-2939
▁voice	-2940
dy	-2941
হাজার	-2942
▁বাজে	-2943
▁চলা	-2944
▁কম্প	-2945
▁asked	-2946
▁words	-2947
▁নির্দেশ	-2948
▁রহ	-2949
owed	-2950
pect	-2951
▁বিখ্যাত	-2952
ures	-2953
▁কাগ	-2954
▁gave	-2955
▁এরপর	-2956
▁har	-2957
▁জানিয়েছেন	-2958
ব্বিশ	-2959
▁বলেছে	-2960
▁মেডি	-2961
ঠন	-2962
▁নিরাপ	-2963
▁stood	-2964
▁হসপি	-2965
▁poor	-2966
▁অনুস	-2967
▁sent	-2968
▁beaut	-2969
▁গ্যাস	-2970
▁পুন	-2971
জীব	-2972
ork	-2973
▁মতন	-2974
▁whole	-2975
▁sudden	-2976
▁inc	-2977
▁কিংবা	-2978
ute	-2979
▁sle	-2980
ষ্য	-2981
▁next	-2982
▁ভূম	-2983
▁pleas	-2984
▁টেস্ট	-2985
▁বিজে	-2986
ple	-2987
▁বাদ	-2988
▁does	-2989
টিউ	-2990
▁ভ্রমণ	-2991
▁open	-2992
▁সমস্যার	-2993
লাইন	-2994
▁ext	-2995
▁অল্প	-2996
▁সহজে	-2997
ned	-2998
▁ধরতে	-2999
চু	-3000
কর্ম	-3001
▁তাও	-3002
▁fact	-3003
be	-3004
oom	-3005
▁বলবো	-3006
▁বিদেশ	-3007
sh	-3008
শ্ব	-3009
ত্বে	-3010
জনে	-3011
selves	-3012
পাল	-3013
লেও	-3014
িক্স	-3015
▁পরিচিত	-3016
▁ছেড়ে	-3017
▁পুরুলিয়া	-3018
▁ধন্য	-3019
gether	-3020
▁চৌ	-3021
▁চট	-3022
▁lat	-3023
▁small	-3024
লিম	-3025
▁fam	-3026
▁অনলাইনে	-3027
গল	-3028
ভর	-3029
▁অসু	-3030
▁high	-3031
িক্ত	-3032
▁উপা	-3033
▁নজর	-3034
▁bed	-3035
▁since	-3036
▁fore	-3037
▁need	-3038
▁whom	-3039
▁আসছি	-3040
▁began	-3041
▁বিচার	-3042
সঙ্গে	-3043
▁বিজ্ঞান	-3044
vie	-3045
▁হু	-3046
▁সিদ্ধান্ত	-3047
▁wait	-3048
হত	-3049
গার	-3050
র্ঘ	-3051
▁কীরকম	-3052
▁round	-3053
ained	-3054
ডেন্ট	-3055
▁যত্ন	-3056
তিনি	-3057
▁হিন্দি	-3058
▁country	-3059
সক	-3060
▁বিকা	-3061
দীর	-3062
▁লিখে	-3063
হের	-3064
aring	-3065
ক্রান্ত	-3066
▁নিজেকে	-3067
▁speak	-3068
ংসা	-3069
▁খান	-3070
▁গরু	-3071
▁স্টে	-3072
▁ইন্ডি	-3073
ামে	-3074
▁oh	-3075
▁বেস	-3076
▁ট্রেন	-3077
▁লাল	-3078
ited	-3079
িকের	-3080
▁bill	-3081
▁land	-3082
জন্য	-3083
দিষ্ট	-3084
সিং	-3085
lied	-3086
▁ওকে	-3087
haps	-3088
▁fall	-3089
▁mean	-3090
হ্য	-3091
ায়া	-3092
▁cond	-3093
▁ডিম	-3094
▁কিলো	-3095
ffee	-3096
্রয়	-3097
▁start	-3098
▁নাম্বার	-3099
▁শ্রম	-3100
▁মিলিয়ে	-3101
▁coffee	-3102
টালে	-3103
▁পঁচ	-3104
▁cut	-3105
▁sun	-3106
enty	-3107
▁king	-3108
▁ড্রাই	-3109
▁perhaps	-3110
জ্য	-3111
ife	-3112
▁জমা	-3113
▁real	-3114
বন	-3115
▁কেন্দ্রীয়	-3116
▁যুব	-3117
▁ফোনে	-3118
▁করতাম	-3119
▁ওগুলো	-3120
▁খাদ্য	-3121
বায়	-3122
fully	-3123
উন	-3124
▁thir	-3125
▁art	-3126
▁দুশো	-3127
▁contr	-3128
oud	-3129
▁dep	-3130
▁পোশা	-3131
খের	-3132
▁herself	-3133
▁ধন্যবাদ	-3134
▁interest	-3135
▁প্রযুক্তি	-3136
▁ব্রি	-3137
▁বর	-3138
▁অসুস্থ	-3139
ates	-3140
▁মাই	-3141
টস	-3142
▁ভুলে	-3143
ড়ো	-3144
▁আসি	-3145
▁সবই	-3146
br	-3147
▁ফসল	-3148
▁সকল	-3149
▁ইন্টার	-3150
▁অর্থা	-3151
▁আফ	-3152
▁however	-3153
যোগ্য	-3154
▁প্রতিনি	-3155
▁ফ্র	-3156
▁মুহ	-3157
ually	-3158
▁পাঠা	-3159
▁শক্তি	-3160
▁আবেদন	-3161
ged	-3162
▁ok	-3163
▁ut	-3164
▁person	-3165
হী	-3166
ানার	-3167
▁এখনো	-3168
▁বলছে	-3169
▁সামাজ	-3170
its	-3171
▁আন্দ	-3172
▁কয়েকটি	-3173
ান্তি	-3174
▁অত্য	-3175
▁পরের	-3176
শাল	-3177
ured	-3178
▁free	-3179
ল্ড	-3180
▁লাগিয়ে	-3181
▁five	-3182
▁অর্থাৎ	-3183
▁tri	-3184
লেক	-3185
▁করেই	-3186
▁সামাজিক	-3187
গুন	-3188
▁okay	-3189
▁চেয়ারম্যান	-3190
ately	-3191
▁পুলি	-3192
▁সেটাকে	-3193
og	-3194
▁gi	-3195
বেলায়	-3196
▁lau	-3197
ason	-3198
▁গেম	-3199
▁আগ্রহ	-3200
▁aw	-3201
row	-3202
▁net	-3203
▁use	-3204
▁অভিন	-3205
▁সম্পা	-3206
ধিক	-3207
▁মুক্তি	-3208
ংগ	-3209
▁মুখে	-3210
▁পরাম	-3211
▁খাবারের	-3212
▁সমাজ	-3213
▁অতির	-3214
▁gre	-3215
▁ভবি	-3216
▁ভূমিকা	-3217
▁gent	-3218
খানা	-3219
▁less	-3220
▁ভিডিও	-3221
▁ছেলের	-3222
▁বিদ্যুৎ	-3223
ert	-3224
র্য	-3225
▁যন্ত্র	-3226
▁play	-3227
▁দুপুর	-3228
▁met	-3229
icken	-3230
▁বানা	-3231
▁সংস্থা	-3232
ানির	-3233
▁চব্বিশ	-3234
▁বৃষ্টি	-3235
▁ভবিষ্য	-3236
▁myself	-3237
▁স্বাধীন	-3238
▁med	-3239
▁ভাল	-3240
▁শব্	-3241
▁পাচ্ছে	-3242
▁অতিরিক্ত	-3243
শীল	-3244
▁তু	-3245
▁ঈ	-3246
▁বিশ্বাস	-3247
▁ভারতে	-3248
▁বিদ্যাল	-3249
▁adm	-3250
▁তুলতে	-3251
▁সেটাও	-3252
▁ব্ল	-3253
▁নেবো	-3254
▁ভাত	-3255
▁brought	-3256
▁bur	-3257
▁নেন	-3258
পির	-3259
▁sec	-3260
ins	-3261
▁খেলাধুলা	-3262
cri	-3263
▁সম্পর্ক	-3264
▁power	-3265
▁কবিতা	-3266
▁flight	-3267
▁es	-3268
▁বৃদ্ধি	-3269
▁আঁক	-3270
▁সিং	-3271
▁প্রদ	-3272
▁পথ	-3273
▁rather	-3274
ief	-3275
▁sound	-3276
ster	-3277
▁adv	-3278
▁মুস	-3279
▁বক্তব্য	-3280
vel	-3281
▁looking	-3282
▁পরামর্শ	-3283
▁মজা	-3284
▁বাচ্চারা	-3285
▁test	-3286
▁দীর্ঘ	-3287
ত্ত	-3288
র্ষ	-3289
▁দাওয়া	-3290
▁নিবন্ধ	-3291
▁cy	-3292
▁আদ	-3293
▁মানসিক	-3294
▁অত্যন্ত	-3295
ade	-3296
▁পিছ	-3297
▁ট্রা	-3298
ably	-3299
্যাম	-3300
▁det	-3301
▁সাজ	-3302
▁দুহাজার	-3303
▁ধীরে	-3304
▁anything	-3305
▁চর	-3306
বারে	-3307
▁অসুবি	-3308
▁মৌ	-3309
▁bat	-3310
▁বিমান	-3311
▁এদের	-3312
▁সম্পূর্ণ	-3313
▁spr	-3314
▁নির্দিষ্ট	-3315
ন্তব্য	-3316
গুলিতে	-3317
▁কংগ	-3318
ann	-3319
মাত্র	-3320
▁black	-3321
▁hon	-3322
▁বন্দ	-3323
ield	-3324
rent	-3325
কেন	-3326
▁wo	-3327
কর্তা	-3328
ওয়ায়	-3329
লেম	-3330
▁rec	-3331
▁disc	-3332
med	-3333
▁ক্যামের	-3334
মিন	-3335
▁মূল্য	-3336
▁রাম	-3337
▁ফার্	-3338
▁প্রো	-3339
▁online	-3340
বেক	-3341
ents	-3342
▁ময়	-3343
▁dire	-3344
▁law	-3345
▁দিল্	-3346
▁নেওয়ার	-3347
▁lay	-3348
▁সমুদ্র	-3349
▁inde	-3350
▁talk	-3351
▁রস	-3352
▁sn	-3353
▁spir	-3354
▁নিশ্চিত	-3355
▁১৯	-3356
▁dear	-3357
▁শেখা	-3358
▁আদাল	-3359
▁lord	-3360
▁পত্র	-3361
▁প্রার্থ	-3362
বাড়ি	-3363
▁আর্থ	-3364
স্থার	-3365
▁underst	-3366
▁চ্যালে	-3367
top	-3368
▁ঐতিহ্য	-3369
ময়	-3370
▁দো	-3371
▁compan	-3372
▁পাতা	-3373
▁রাস্তায়	-3374
oney	-3375
▁till	-3376
ামূল	-3377
▁মিষ্টি	-3378
not	-3379
রাঁ	-3380
▁ফেল	-3381
▁কাছা	-3382
▁ক্রিকে	-3383
▁অনুম	-3384
▁বাঁচ	-3385
সী	-3386
ধুর	-3387
▁মেশ	-3388
▁নষ্ট	-3389
nded	-3390
▁তিনশো	-3391
▁নৌ	-3392
▁এখনকার	-3393
▁জগ	-3394
ন্দা	-3395
▁নিন	-3396
▁সংস	-3397
▁কলেজে	-3398
▁সেটাই	-3399
▁contin	-3400
▁টিভি	-3401
ন্টা	-3402
ল্পনা	-3403
▁প্রাণ	-3404
▁অবস্থান	-3405
▁whose	-3406
▁লাখ	-3407
▁গড়ে	-3408
▁জুতো	-3409
▁la	-3410
▁serv	-3411
রাষ্ট্র	-3412
▁পরীক্ষ	-3413
িনের	-3414
ching	-3415
ering	-3416
▁gone	-3417
▁তত	-3418
▁জাম	-3419
▁নির	-3420
ility	-3421
▁air	-3422
▁মন্ত্র	-3423
▁সিনেমা	-3424
▁দিয়েছি	-3425
▁পরিবে	-3426
▁হাম	-3427
▁সিরি	-3428
▁পরিচ	-3429
▁নী	-3430
▁উত্তে	-3431
▁উই	-3432
▁অনেকেই	-3433
▁দিয়েছেন	-3434
ove	-3435
আর	-3436
ীতে	-3437
▁বৈঠ	-3438
▁list	-3439
▁তাছাড়াও	-3440
▁বদ	-3441
▁ট্যা	-3442
▁gentle	-3443
দিক	-3444
▁খুশি	-3445
▁দেরি	-3446
্যারি	-3447
▁office	-3448
pr	-3449
▁শিখতে	-3450
▁কর্মকর্তা	-3451
িকদের	-3452
▁others	-3453
▁এরা	-3454
▁along	-3455
▁death	-3456
▁আবহা	-3457
▁laptop	-3458
▁pet	-3459
ressed	-3460
▁মশলা	-3461
▁আন্দোল	-3462
▁মুখ্যমন্ত্রী	-3463
▁chr	-3464
▁সাব	-3465
▁সম্ব	-3466
▁ওয়ান	-3467
ments	-3468
▁ফেরত	-3469
▁মাছের	-3470
▁সংগ্রহ	-3471
me	-3472
কেই	-3473
▁del	-3474
als	-3475
▁doub	-3476
iver	-3477
য়োগ	-3478
পাধ	-3479
▁sou	-3480
▁taken	-3481
▁অথ	-3482
▁এল	-3483
▁তবু	-3484
▁post	-3485
▁চাপ	-3486
িরে	-3487
জায়	-3488
▁ill	-3489
▁মাসের	-3490
▁জিনিসপত্র	-3491
▁fire	-3492
▁দেখিয়ে	-3493
uring	-3494
▁project	-3495
▁রাত	-3496
▁বললেন	-3497
▁ঘরের	-3498
▁matter	-3499
fect	-3500
ুনিক	-3501
▁চালিয়ে	-3502
সূ	-3503
স্থান	-3504
্রিয়া	-3505
▁chicken	-3506
▁ready	-3507
ached	-3508
▁আকর্	-3509
▁ভেবে	-3510
no	-3511
▁খরচা	-3512
ued	-3513
▁মূলত	-3514
hy	-3515
▁"	-3516
ঙ্কা	-3517
▁নারী	-3518
▁তির	-3519
ন্ত্রণ	-3520
oun	-3521
▁chat	-3522
▁ধরণের	-3523
বর্ষ	-3524
▁deep	-3525
▁mark	-3526
▁twenty	-3527
ঙে	-3528
করা	-3529
ঠি	-3530
▁fa	-3531
▁জানু	-3532
▁তোর	-3533
ধ্যে	-3534
▁ডাল	-3535
▁ফির	-3536
▁রাই	-3537
▁প্রতিষ্ঠান	-3538
কারে	-3539
▁কাম	-3540
▁দিয়েছিলাম	-3541
▁mor	-3542
▁অপর	-3543
▁যাদের	-3544
▁যেয়ে	-3545
▁বাইরের	-3546
ত্তর	-3547
▁passed	-3548
▁dec	-3549
▁hold	-3550
▁সাহিত	-3551
▁বাংলার	-3552
▁কঠিন	-3553
▁sing	-3554
▁পরিক	-3555
▁পাওয়ার	-3556
ভায়	-3557
▁prom	-3558
men	-3559
▁মুরগি	-3560
▁station	-3561
▁wife	-3562
ervation	-3563
▁পেমেন্ট	-3564
নী	-3565
টাতে	-3566
▁দিব	-3567
▁together	-3568
▁সাংবাদ	-3569
mb	-3570
কিছু	-3571
▁believe	-3572
▁C	-3573
▁mil	-3574
ন্ডার	-3575
কালীন	-3576
▁এদিকে	-3577
▁red	-3578
ok	-3579
▁পোশাক	-3580
▁দৈ	-3581
▁কোয়ালি	-3582
▁মার্ক	-3583
চের	-3584
পাত	-3585
▁নব	-3586
্রুত	-3587
▁true	-3588
ention	-3589
ema	-3590
সভা	-3591
▁near	-3592
▁কোম্পানি	-3593
তরে	-3594
▁ঘণ্	-3595
▁গ্যা	-3596
▁পুরুষ	-3597
▁প্রত্যেকটা	-3598
তর্ক	-3599
▁আঁকার	-3600
▁রান্নার	-3601
▁fif	-3602
▁পোলট্রি	-3603
▁case	-3604
▁কতটা	-3605
▁শতা	-3606
▁বোঝা	-3607
▁উনিশ	-3608
▁লী	-3609
▁২০	-3610
▁দেয়া	-3611
▁পুজোর	-3612
▁মুসলিম	-3613
▁cal	-3614
দ্ধার	-3615
▁গার্	-3616
চল	-3617
▁ত্রি	-3618
outh	-3619
▁অ্যান্ড	-3620
▁শিক্ষার্থ	-3621
দুল	-3622
ten	-3623
ceiv	-3624
▁চিকেন	-3625
▁নিরাপত্	-3626
▁জেনে	-3627
ক্রম	-3628
▁ele	-3629
▁hope	-3630
▁অর্জন	-3631
▁প্রচার	-3632
cial	-3633
▁অন্ত	-3634
▁লেগেছে	-3635
date	-3636
য়ায়	-3637
▁ব্রা	-3638
▁update	-3639
▁feet	-3640
▁মনের	-3641
▁fur	-3642
▁শার	-3643
▁ওয়ার	-3644
স্তো	-3645
▁শুধ	-3646
▁সচে	-3647
▁পদ্ধতি	-3648
▁মেয়েদের	-3649
ison	-3650
ell	-3651
▁গবে	-3652
▁প্রশিক্ষ	-3653
lish	-3654
স্তি	-3655
▁vide	-3656
▁large	-3657
▁গেলাম	-3658
▁সমর্থ	-3659
▁indeed	-3660
রাস	-3661
▁given	-3662
▁প্রাই	-3663
▁প্রবলেম	-3664
▁বিল	-3665
▁money	-3666
▁তারিখ	-3667
ities	-3668
▁কালী	-3669
▁alone	-3670
▁কেননা	-3671
▁গাড়ির	-3672
কৃতিক	-3673
▁মেলা	-3674
▁করাটা	-3675
▁ধা	-3676
▁মাথা	-3677
▁জিজ্ঞা	-3678
▁general	-3679
▁হারিয়ে	-3680
fort	-3681
▁শব্দ	-3682
▁behind	-3683
▁৩	-3684
▁remem	-3685
▁video	-3686
▁মাথায়	-3687
▁ear	-3688
▁আসেন	-3689
▁replied	-3690
ঞ্জের	-3691
▁উঠেছে	-3692
▁হাতের	-3693
▁সৃষ্টি	-3694
▁প্রস্তু	-3695
জয়	-3696
▁দ্রুত	-3697
▁ব্যায়াম	-3698
▁মিশ	-3699
দ্দ	-3700
মিত	-3701
তলা	-3702
▁বৃহ	-3703
▁অটো	-3704
▁নিয়মিত	-3705
▁ফাইভ	-3706
▁তুলনায়	-3707
▁পশ্চিমবঙ্গে	-3708
▁আগেকার	-3709
দায়	-3710
গুলোতে	-3711
ুমাত্র	-3712
itu	-3713
▁movie	-3714
▁christ	-3715
▁কিনা	-3716
▁board	-3717
▁পায়ে	-3718
জনা	-3719
▁eas	-3720
▁পাব	-3721
▁অনলাইন	-3722
▁রূপ	-3723
▁দৌড়	-3724
▁প্রাথ	-3725
▁প্রাকৃতিক	-3726
▁ছাড়াও	-3727
▁ঠান্ড	-3728
aim	-3729
কাছি	-3730
▁মৃত্যু	-3731
▁ধু	-3732
▁son	-3733
ative	-3734
▁রেস্তো	-3735
▁রবীন্দ্রনাথ	-3736
▁লোকে	-3737
▁হোয়া	-3738
▁কাছাকাছি	-3739
ৌশ	-3740
▁dat	-3741
▁দার্জি	-3742
▁stop	-3743
▁ওপরে	-3744
▁সেলাই	-3745
▁বানিয়ে	-3746
▁captain	-3747
arth	-3748
▁opp	-3749
ience	-3750
▁কেন্দ্রের	-3751
▁bes	-3752
▁মাটি	-3753
▁state	-3754
▁wonder	-3755
▁পারছে	-3756
▁অঞ্চলে	-3757
▁জিজ্ঞাসা	-3758
▁যেত	-3759
▁উৎপা	-3760
▁পূজা	-3761
▁পছন্দের	-3762
tle	-3763
▁এখানকার	-3764
▁পৌঁছ	-3765
▁আর্থিক	-3766
▁নির্ভর	-3767
তায়া	-3768
▁পথে	-3769
wered	-3770
▁আধুনিক	-3771
▁পাচ্ছি	-3772
▁জাল	-3773
▁মিডিয়া	-3774
unt	-3775
▁শুধুমাত্র	-3776
দিনের	-3777
▁এগারো	-3778
▁উন্নয়ন	-3779
▁মেয়েরা	-3780
▁প্রাথমিক	-3781
টনা	-3782
▁ভিত্	-3783
▁ten	-3784
▁যাতায়া	-3785
চিব	-3786
▁আকর্ষণ	-3787
▁হত	-3788
▁body	-3789
▁উপভোগ	-3790
▁cannot	-3791
▁জিনিসগুলো	-3792
▁tv	-3793
▁লু	-3794
লাপ	-3795
▁past	-3796
▁অভিনে	-3797
▁পরিচালক	-3798
used	-3799
গঞ্জ	-3800
▁pub	-3801
▁মাটির	-3802
সন	-3803
▁আমের	-3804
▁বলেছেন	-3805
ভেন	-3806
▁children	-3807
▁পরিস্থিতি	-3808
ys	-3809
এফ	-3810
মাল	-3811
্লি	-3812
িকায়	-3813
▁step	-3814
▁ঘন্টা	-3815
ced	-3816
▁আশেপাশে	-3817
▁mer	-3818
▁তারাও	-3819
ody	-3820
▁রং	-3821
বরা	-3822
cond	-3823
▁brows	-3824
▁link	-3825
▁হালকা	-3826
▁cin	-3827
▁ভাগ	-3828
▁লেন	-3829
anger	-3830
▁short	-3831
▁জানুয়ারি	-3832
▁শাহ	-3833
▁হাসপাতাল	-3834
▁pos	-3835
ances	-3836
▁around	-3837
▁উপজেলা	-3838
▁যেভাবে	-3839
▁বাবার	-3840
▁সম্পাদক	-3841
▁court	-3842
▁themselves	-3843
▁খেলো	-3844
▁রক্ত	-3845
▁রহমান	-3846
টটা	-3847
▁doubt	-3848
▁ব্যাংক	-3849
▁answered	-3850
▁শাক	-3851
▁stre	-3852
স্ট্রে	-3853
▁thous	-3854
▁বিজেপি	-3855
▁পাকিস্তান	-3856
টিক	-3857
▁আর্	-3858
▁খায়	-3859
▁ঘুম	-3860
▁টিউ	-3861
▁এমনকি	-3862
ভাষা	-3863
▁thousand	-3864
▁দার্জিলিং	-3865
ister	-3866
▁রেস্তোরাঁ	-3867
▁ask	-3868
▁আসো	-3869
▁thus	-3870
▁ট্রেনে	-3871
▁স্থানান্তর	-3872
▁ra	-3873
▁cried	-3874
▁সহযোগ	-3875
▁বেড়াতে	-3876
work	-3877
শিষ্ট	-3878
▁ইংরেজি	-3879
▁তিরিশ	-3880
▁শরীরের	-3881
▁profile	-3882
▁চুল	-3883
▁strong	-3884
ided	-3885
▁cor	-3886
owing	-3887
▁diffe	-3888
সিন	-3889
▁সাহায্যে	-3890
ন্ধে	-3891
▁tem	-3892
▁মাত্র	-3893
▁ধর্মীয়	-3894
পালা	-3895
▁জলে	-3896
▁সুপার	-3897
ants	-3898
cer	-3899
▁hear	-3900
▁যুদ্ধ	-3901
▁town	-3902
▁সচেতন	-3903
hn	-3904
▁খোঁ	-3905
▁second	-3906
▁মার্কিন	-3907
ept	-3908
▁cat	-3909
▁মোহ	-3910
▁করেছিল	-3911
ডিং	-3912
▁sign	-3913
▁sleep	-3914
▁ধারণা	-3915
▁দাও	-3916
▁cinema	-3917
▁payment	-3918
▁অনুষ্ঠিত	-3919
উন্ড	-3920
▁least	-3921
ীকে	-3922
▁exc	-3923
▁খুল	-3924
▁reason	-3925
ping	-3926
▁suddenly	-3927
ider	-3928
▁বেসরকারি	-3929
▁তদ	-3930
▁dev	-3931
▁তোলা	-3932
▁নেবে	-3933
▁উদ্দেশ	-3934
লিতে	-3935
▁তোমাকে	-3936
▁est	-3937
▁দিলাম	-3938
▁বিরোধ	-3939
▁জ্ঞ	-3940
▁ফ্রি	-3941
▁কুমার	-3942
টুকু	-3943
▁ভোট	-3944
▁close	-3945
▁বী	-3946
▁women	-3947
▁সংস্কৃতি	-3948
▁পাখ	-3949
▁fort	-3950
▁সামগ্র	-3951
ড়ের	-3952
gth	-3953
▁ডাক	-3954
▁বসবাস	-3955
▁উদ্ধার	-3956
▁subject	-3957
▁stud	-3958
▁দেখান	-3959
ceed	-3960
▁খুলে	-3961
বীর	-3962
▁যদিও	-3963
ফোন	-3964
▁rate	-3965
▁বলবেন	-3966
▁button	-3967
▁fellow	-3968
ভুক্ত	-3969
▁টেলি	-3970
▁অ্যাপ	-3971
▁সফল	-3972
গুলিকে	-3973
aces	-3974
ized	-3975
চক	-3976
রম	-3977
▁often	-3978
▁slide	-3979
▁সপ্তাহে	-3980
▁দেড়	-3981
▁করিয়ে	-3982
▁ড্রাইভার	-3983
▁প্রয়োজনীয়	-3984
▁fair	-3985
▁পরিচালনা	-3986
িত্	-3987
নাল	-3988
▁party	-3989
bed	-3990
▁letter	-3991
▁চাইছি	-3992
▁পারছেন	-3993
পক্ষ	-3994
▁wood	-3995
োদ	-3996
mer	-3997
▁coming	-3998
ets	-3999
ঁয়া	-4000
riage	-4001
▁চলেছে	-4002
▁অ্যাকাউন্টে	-4003
োগ্রা	-4004
▁করলেন	-4005
▁nature	-4006
ব্বই	-4007
▁সেন্টার	-4008
▁browser	-4009
ুনা	-4010
▁hur	-4011
▁within	-4012
▁সফ	-4013
▁ground	-4014
▁কিনেছিলাম	-4015
ains	-4016
▁sum	-4017
ah	-4018
▁গভ	-4019
্রাম	-4020
▁backup	-4021
গ্	-4022
সির	-4023
▁স্থা	-4024
▁শারীর	-4025
ression	-4026
ন্টি	-4027
▁খেলাধ	-4028
▁বিশ্বের	-4029
▁ষ	-4030
fic	-4031
ুনি	-4032
blem	-4033
vered	-4034
▁soul	-4035
▁উৎসা	-4036
▁একসঙ্গে	-4037
ines	-4038
acter	-4039
▁wall	-4040
▁really	-4041
▁obs	-4042
▁প্ল	-4043
▁বাসে	-4044
▁আয়োজন	-4045
▁সঙ্গীত	-4046
▁suff	-4047
▁year	-4048
▁server	-4049
▁john	-4050
▁reco	-4051
▁ঘোষণা	-4052
▁পড়ি	-4053
word	-4054
▁চার্জ	-4055
▁পুলিশের	-4056
▁কাগজ	-4057
বাল	-4058
iful	-4059
▁big	-4060
▁offic	-4061
▁সদর	-4062
সেন্ট	-4063
▁কম্পি	-4064
ale	-4065
▁স্ন	-4066
▁নাগর	-4067
▁অতিথি	-4068
থর	-4069
▁গেলো	-4070
▁reservation	-4071
aced	-4072
▁কমিটির	-4073
body	-4074
▁আসাম	-4075
▁লাইন	-4076
ানিক	-4077
▁পড়ার	-4078
টিশ	-4079
▁পরিবহন	-4080
▁সবকিছু	-4081
▁প্রতিটি	-4082
▁ভিতরে	-4083
ony	-4084
▁bag	-4085
▁says	-4086
▁উপকার	-4087
▁ছড়িয়ে	-4088
সেল	-4089
ident	-4090
▁cup	-4091
▁email	-4092
▁aff	-4093
▁wee	-4094
▁লাগছে	-4095
▁সেইগুলো	-4096
▁password	-4097
▁বললে	-4098
▁পড়ছে	-4099
idd	-4100
ৃত্য	-4101
▁রবি	-4102
illed	-4103
▁fell	-4104
▁গ্রী	-4105
▁নদীর	-4106
▁পেশা	-4107
▁মেনে	-4108
▁driver	-4109
▁জর	-4110
▁গ্রা	-4111
▁above	-4112
▁problem	-4113
রাট	-4114
ides	-4115
▁কালার	-4116
▁ক্লাস	-4117
▁logout	-4118
hen	-4119
বাজার	-4120
ভাবনা	-4121
▁mount	-4122
▁শারীরিক	-4123
▁শেষে	-4124
▁sched	-4125
▁brother	-4126
▁friends	-4127
ross	-4128
▁বোন	-4129
▁আগেই	-4130
▁মালিক	-4131
▁lear	-4132
▁network	-4133
য়নের	-4134
▁rose	-4135
▁lad	-4136
▁ট্রি	-4137
▁invoice	-4138
▁শীতকালে	-4139
▁schedule	-4140
▁কিভাবে	-4141
ages	-4142
ক্টর	-4143
▁held	-4144
▁দামে	-4145
▁বন্ধুদের	-4146
ট্	-4147
িরো	-4148
▁জঙ্গ	-4149
▁color	-4150
▁নিচে	-4151
▁heav	-4152
▁known	-4153
▁spirit	-4154
▁বয়স্ক	-4155
▁num	-4156
▁sort	-4157
▁পানি	-4158
▁বলার	-4159
▁ছিলাম	-4160
▁ব্যাং	-4161
▁presentation	-4162
▁change	-4163
জো	-4164
▁bit	-4165
▁zoom	-4166
▁খেলোয়া	-4167
▁understand	-4168
▁বিকে	-4169
ery	-4170
ওয়ে	-4171
▁horse	-4172
▁একু	-4173
▁রোজ	-4174
▁চন্দ্র	-4175
ific	-4176
▁deadline	-4177
রুণ	-4178
▁প্রকৃ	-4179
▁madam	-4180
▁চল্লিশ	-4181
▁মুখো	-4182
▁উৎস	-4183
▁মন্ত্রী	-4184
pl	-4185
ুজ	-4186
▁cir	-4187
▁কাউকে	-4188
▁লেনদে	-4189
▁বিহার	-4190
alth	-4191
rence	-4192
▁সেনা	-4193
wer	-4194
সেন	-4195
▁আনতে	-4196
▁সুই	-4197
▁prin	-4198
▁কোটি	-4199
▁প্লে	-4200
▁সম্বন্ধে	-4201
পরি	-4202
▁উপন	-4203
▁মাতৃ	-4204
▁login	-4205
▁নিয়েছে	-4206
▁dut	-4207
▁pret	-4208
▁master	-4209
▁ক্ষমতা	-4210
▁মানুষজন	-4211
▁মস	-4212
▁jud	-4213
▁চিত্র	-4214
▁টাইমে	-4215
▁lost	-4216
▁ভেঙে	-4217
▁ম্যাম	-4218
কালের	-4219
▁সহায়	-4220
▁খুঁজছি	-4221
▁সংর	-4222
টোগ্রা	-4223
▁কাজটা	-4224
▁দুর্ঘ	-4225
▁ca	-4226
▁ইলেক	-4227
▁making	-4228
▁গাছপালা	-4229
▁hus	-4230
▁used	-4231
▁জাতি	-4232
▁চলবে	-4233
▁প্রশ্ন	-4234
▁দার	-4235
▁মনো	-4236
ষ্টির	-4237
▁blood	-4238
নিং	-4239
রাধ	-4240
▁পরিকল্পনা	-4241
▁সৈ	-4242
দ্ধা	-4243
▁bir	-4244
▁বয়স	-4245
▁নাহলে	-4246
▁উত্তেজিত	-4247
▁বিশ্ববিদ্যালয়	-4248
▁ব্যথা	-4249
▁ইউটিউ	-4250
▁পাখির	-4251
▁রাজধান	-4252
read	-4253
tered	-4254
▁ডিজা	-4255
▁নিয়েই	-4256
ancy	-4257
iled	-4258
▁রুম	-4259
লিয়ার	-4260
▁truth	-4261
মেল	-4262
here	-4263
▁জ্ব	-4264
▁times	-4265
▁pen	-4266
▁ফেসব	-4267
▁এভাবে	-4268
্টগ্রাম	-4269
বাব	-4270
▁ty	-4271
▁const	-4272
ane	-4273
▁কবি	-4274
▁সংক	-4275
▁বান্ধ	-4276
▁itself	-4277
▁অন্তর্	-4278
ety	-4279
▁দর	-4280
▁মিনিট	-4281
কেও	-4282
▁ce	-4283
▁fear	-4284
▁mist	-4285
▁খুঁজে	-4286
▁late	-4287
▁কোর্	-4288
▁সাবেক	-4289
ug	-4290
▁বিস্ত	-4291
abase	-4292
▁ডিজি	-4293
▁পাঁচটা	-4294
▁database	-4295
বাবু	-4296
▁আনবে	-4297
▁quick	-4298
▁sight	-4299
▁story	-4300
▁live	-4301
ote	-4302
▁চলতে	-4303
ump	-4304
রাজ	-4305
▁যৌ	-4306
vern	-4307
পুরের	-4308
▁expect	-4309
বৃ	-4310
ption	-4311
▁didn	-4312
মতো	-4313
োভ	-4314
প্রদেশ	-4315
▁যিনি	-4316
ceived	-4317
▁হত্যা	-4318
▁across	-4319
▁চট্টগ্রাম	-4320
ূর	-4321
▁বর্ণ	-4322
imes	-4323
▁during	-4324
▁thy	-4325
▁পক্ষ	-4326
মন্ত্র	-4327
▁bring	-4328
▁তিনটি	-4329
▁business	-4330
ready	-4331
iously	-4332
▁earth	-4333
▁অবস্থায়	-4334
▁নিয়ন্ত্রণ	-4335
▁human	-4336
▁নানার	-4337
▁চ্যানে	-4338
▁gold	-4339
▁তৃণ	-4340
▁priv	-4341
▁কমিশন	-4342
▁প্রাচ	-4343
▁already	-4344
▁খেলাধুলো	-4345
▁দৃশ্য	-4346
▁প্রদেশ	-4347
ution	-4348
▁বিনি	-4349
▁abs	-4350
শিল্প	-4351
টিস	-4352
▁sea	-4353
▁S	-4354
▁চেক	-4355
▁wild	-4356
▁বছরে	-4357
▁whether	-4358
▁ঝাড়গ্রাম	-4359
rie	-4360
টিভ	-4361
োদন	-4362
▁হলেন	-4363
▁quiet	-4364
িনীর	-4365
▁won	-4366
▁উপায়	-4367
▁স্থানে	-4368
▁অস্ট্রে	-4369
▁লন্ড	-4370
▁returned	-4371
পুরে	-4372
▁রেস্ট	-4373
▁squ	-4374
▁সেটার	-4375
cted	-4376
▁chur	-4377
▁lead	-4378
▁ঘটনায়	-4379
▁নিচ্ছে	-4380
▁wish	-4381
▁আর্ট	-4382
▁মেডিকেল	-4383
▁পড়ছিলাম	-4384
eric	-4385
oint	-4386
▁সাদা	-4387
▁সপ্তাহ	-4388
▁শিক্ষার	-4389
ভাই	-4390
▁উঠতে	-4391
▁strange	-4392
ize	-4393
▁id	-4394
▁রাখেন	-4395
▁মাধ্যম	-4396
▁walk	-4397
▁কোভি	-4398
▁পিস	-4399
▁অধিকার	-4400
▁কেনাকা	-4401
▁প্রতিযোগিত	-4402
▁মাঠ	-4403
▁পুরনো	-4404
▁low	-4405
▁চালাতে	-4406
▁সার্ভি	-4407
▁everything	-4408
▁else	-4409
▁তালে	-4410
▁match	-4411
▁paper	-4412
ল্ট	-4413
▁bal	-4414
▁সহজেই	-4415
▁প্রতিযোগিতা	-4416
▁আজকের	-4417
র্ন	-4418
▁রাখুন	-4419
▁শিখেছি	-4420
▁মন্তব্য	-4421
▁বর্ষা	-4422
▁উপজেলার	-4423
▁necess	-4424
িং	-4425
ডাম	-4426
্যান্ট	-4427
▁evening	-4428
▁নানারকম	-4429
মিটার	-4430
▁ঠান্ডা	-4431
▁sor	-4432
▁নিলে	-4433
▁কংগ্রেস	-4434
tern	-4435
▁সাহিত্য	-4436
irt	-4437
▁কাঠ	-4438
▁অভিয	-4439
▁নেতৃ	-4440
▁নিজস্ব	-4441
lf	-4442
▁ক্র	-4443
▁ধো	-4444
jo	-4445
ৃহ	-4446
জেন	-4447
▁tou	-4448
▁means	-4449
▁শরীরে	-4450
▁পরিবর্	-4451
▁সামনের	-4452
▁থানার	-4453
▁খেলোয়াড়	-4454
▁কালো	-4455
▁বাণি	-4456
▁পৃথিবী	-4457
লস	-4458
▁doll	-4459
▁করতেন	-4460
▁নৃত্য	-4461
▁rus	-4462
▁grou	-4463
▁উদ্ব	-4464
▁যতটা	-4465
▁অঞ্চল	-4466
▁কর্তৃ	-4467
▁offer	-4468
▁এয়ার	-4469
▁নির্মাণ	-4470
▁sever	-4471
▁পৌঁছা	-4472
ন্থ	-4473
▁ক্ল	-4474
alked	-4475
▁বাঁকু	-4476
▁দাস	-4477
cious	-4478
▁suppose	-4479
▁আবহাওয়া	-4480
▁দুঃ	-4481
▁পিক	-4482
▁cycle	-4483
▁তোলার	-4484
▁english	-4485
▁প্রভাবিত	-4486
িল	-4487
ুঁ	-4488
বিদ	-4489
▁sus	-4490
ingly	-4491
▁forg	-4492
▁থ্রি	-4493
▁পড়েছে	-4494
▁লাগানো	-4495
▁ব্যবসায়	-4496
▁কাশ	-4497
▁টিকি	-4498
▁কিছুদিন	-4499
ঞ্জা	-4500
▁expl	-4501
▁আওয়	-4502
ives	-4503
পাধ্যায়	-4504
▁কলকাতার	-4505
old	-4506
িতে	-4507
▁পরিষ	-4508
▁শান্তি	-4509
▁beautiful	-4510
▁কোয়ালিটি	-4511
রিক	-4512
idge	-4513
▁seat	-4514
▁city	-4515
শ্রম	-4516
গুড়ি	-4517
▁তদন্ত	-4518
▁remark	-4519
▁ব্যাপারটা	-4520
▁ওটি	-4521
▁break	-4522
▁আওয়ামী	-4523
▁রাজা	-4524
▁স্বামী	-4525
▁ক্যামেরা	-4526
ism	-4527
▁bad	-4528
▁ওইটা	-4529
▁গাছে	-4530
সো	-4531
▁public	-4532
▁ইলেকট্র	-4533
airs	-4534
akes	-4535
▁লোকেরা	-4536
▁ম্যাডাম	-4537
র্যা	-4538
চ্ছিল	-4539
▁roll	-4540
▁খাবারটা	-4541
▁স্মার্ট	-4542
▁অর্থনৈতিক	-4543
থার	-4544
▁din	-4545
▁চারি	-4546
▁নাইন	-4547
▁early	-4548
▁বাস্ত	-4549
▁উল্লেখযোগ্য	-4550
ণে	-4551
ces	-4552
শনের	-4553
▁চোখে	-4554
ঁচা	-4555
▁je	-4556
▁hill	-4557
▁পাবে	-4558
▁medic	-4559
▁জ্ঞান	-4560
▁L	-4561
▁ঘোষ	-4562
▁সেবা	-4563
▁ঘণ্টা	-4564
aughter	-4565
▁mur	-4566
▁cast	-4567
▁আমারও	-4568
▁এগুলি	-4569
পথ	-4570
জাত	-4571
শোর	-4572
▁দর্শ	-4573
চ্ছন্ন	-4574
▁Let	-4575
শিয়া	-4576
▁নিরাপত্তা	-4577
oken	-4578
itted	-4579
▁ফুলের	-4580
▁যোগ্য	-4581
ians	-4582
▁নেমে	-4583
▁ক্লাব	-4584
▁পাঁচটি	-4585
▁৫	-4586
▁ওনার	-4587
▁comple	-4588
▁ge	-4589
charge	-4590
▁cop	-4591
ager	-4592
▁মেন	-4593
▁অনুর	-4594
▁ap	-4595
ায়ার	-4596
▁ইন্টারনে	-4597
▁জম	-4598
▁sal	-4599
▁রিপোর্ট	-4600
দ্রা	-4601
▁আনা	-4602
▁জোর	-4603
▁দিত	-4604
▁দিল	-4605
▁সোশ	-4606
▁হোয়াটস	-4607
জনক	-4608
▁tom	-4609
▁arms	-4610
▁নিহত	-4611
▁ইচ্ছে	-4612
▁উপলব্	-4613
▁দেখবেন	-4614
দ্ব	-4615
ভাগে	-4616
▁slow	-4617
▁towards	-4618
ড়িত	-4619
▁jack	-4620
▁আঁকতে	-4621
▁আরাম	-4622
▁হোটেল	-4623
▁তৃণমূল	-4624
▁বাগানে	-4625
▁স্কুলের	-4626
▁কোম্পানির	-4627
্মদ	-4628
▁ফটোগ্রা	-4629
র্ড	-4630
▁win	-4631
▁thou	-4632
▁অথবা	-4633
▁happy	-4634
▁আরে	-4635
▁সড়	-4636
iting	-4637
▁এইট	-4638
▁either	-4639
▁আক	-4640
▁চাঁ	-4641
▁sweet	-4642
▁সর্বো	-4643
▁পেয়েছে	-4644
ক্ষিত	-4645
▁mere	-4646
ead	-4647
▁নম্ব	-4648
▁সেরা	-4649
▁পানীয়	-4650
aven	-4651
band	-4652
▁করল	-4653
ustom	-4654
▁রেসি	-4655
রত	-4656
ফার	-4657
▁অধি	-4658
▁গোল	-4659
▁টাকাটা	-4660
ফো	-4661
▁fine	-4662
▁সোশ্যাল	-4663
▁boat	-4664
▁kept	-4665
▁ship	-4666
▁কমপ্	-4667
বেল	-4668
হৃত	-4669
▁বললো	-4670
▁পার্ক	-4671
▁চালানোর	-4672
▁আক্রান্ত	-4673
ught	-4674
▁cent	-4675
oof	-4676
েরো	-4677
▁আড়াই	-4678
▁শেয়ার	-4679
▁বাংলাদেশে	-4680
জু	-4681
aves	-4682
▁সন্দ	-4683
▁সমাধান	-4684
▁দুজন	-4685
▁মানব	-4686
▁উদ্যোগ	-4687
▁anx	-4688
▁ইঞ্জ	-4689
▁প্রশিক্ষণ	-4690
▁corn	-4691
▁অনেকগুলো	-4692
▁নদীতে	-4693
▁যেতাম	-4694
▁নিজেরা	-4695
ন্ডা	-4696
▁চারশো	-4697
▁americ	-4698
▁ব্যাপক	-4699
▁বিশাল	-4700
▁কারণেই	-4701
▁ব্যাঙ্	-4702
▁several	-4703
তরা	-4704
▁সেদিন	-4705
▁plate	-4706
▁possible	-4707
বাসী	-4708
▁বজায়	-4709
fection	-4710
▁church	-4711
▁এফ	-4712
▁কারোর	-4713
▁তিনটে	-4714
▁ধর্মের	-4715
▁প্রি	-4716
ape	-4717
▁ওরকম	-4718
erg	-4719
ination	-4720
▁become	-4721
▁একমাত্র	-4722
aged	-4723
pped	-4724
▁হোম	-4725
▁হসপিটালে	-4726
▁sometimes	-4727
▁যুক্তরাষ্ট্র	-4728
▁ve	-4729
▁দলে	-4730
▁ছাগল	-4731
▁তরুণ	-4732
▁medicine	-4733
ক্ষ্ম	-4734
▁আয়ো	-4735
▁পাঠানো	-4736
বিল	-4737
▁respect	-4738
▁হয়েছেন	-4739
▁তর	-4740
▁নম	-4741
▁এজে	-4742
▁বোধ	-4743
▁became	-4744
▁mod	-4745
▁স্বপ্	-4746
▁এইখানে	-4747
ey	-4748
day	-4749
িশে	-4750
▁show	-4751
▁অন্ধ	-4752
▁husband	-4753
কুম	-4754
ভাষ	-4755
▁পিন	-4756
ানায়	-4757
▁excl	-4758
▁ran	-4759
▁চৌধুর	-4760
▁river	-4761
▁মেশিন	-4762
▁বিষয়টি	-4763
্যাশ	-4764
▁mag	-4765
▁অপে	-4766
▁স্মৃতি	-4767
▁character	-4768
▁ঘটনার	-4769
মন্ত্রীর	-4770
▁consider	-4771
▁৪	-4772
▁eye	-4773
▁vie	-4774
▁front	-4775
▁গায়ে	-4776
▁দিলেন	-4777
▁secret	-4778
▁প্রজ	-4779
▁বিএন	-4780
▁cross	-4781
▁বুদ্ধ	-4782
▁result	-4783
▁রাস্তাঘা	-4784
▁সুন্দরভাবে	-4785
▁গি	-4786
ভাবিক	-4787
▁কটা	-4788
▁টোটো	-4789
▁মসজি	-4790
▁rich	-4791
▁family	-4792
▁manner	-4793
▁feeling	-4794
▁গানের	-4795
▁প্রচণ্ড	-4796
ব্র	-4797
▁অর	-4798
▁নিক	-4799
ঞ্জাম	-4800
▁port	-4801
▁ধরার	-4802
▁নাচের	-4803
▁এইভাবেই	-4804
শোধ	-4805
▁প্রক্রিয়া	-4806
খ্য	-4807
▁জনগ	-4808
▁বীর	-4809
▁সেইভাবে	-4810
str	-4811
▁ক্রী	-4812
▁trans	-4813
▁ফাঁকা	-4814
▁ওইখানে	-4815
য়র	-4816
▁aut	-4817
▁sho	-4818
▁গোটা	-4819
▁যুগে	-4820
▁occas	-4821
▁ব্যবহৃত	-4822
ley	-4823
ঁকে	-4824
▁আহ্ব	-4825
▁grand	-4826
▁সালের	-4827
▁ইয়	-4828
▁ব্যস্ত	-4829
▁জিনিসের	-4830
▁কিলোমিটার	-4831
▁fre	-4832
▁শ্র	-4833
▁আধার	-4834
▁ভিড়	-4835
▁ওয়েব	-4836
▁appear	-4837
ift	-4838
use	-4839
▁ডান	-4840
▁draw	-4841
▁পঁচিশ	-4842
▁থাকবেন	-4843
▁	-4844
া	-4845
ে	-4846
র	-4847
ি	-4848
e	-4849
ন	-4850
্	-4851
ক	-4852
য	-4853
t	-4854
ব	-4855
a	-4856
o	-4857
ত	-4858
ম	-4859
i	-4860
n	-4861
ল	-4862
s	-4863
স	-4864
h	-4865
r	-4866
়	-4867
প	-4868
ু	-4869
আ	-4870
দ	-4871
ো	-4872
l	-4873
d	-4874
ট	-4875
হ	-4876
ছ	-4877
এ	-4878
ই	-4879
u	-4880
জ	-4881
c	-4882
গ	-4883
m	-4884
খ	-4885
f	-4886
w	-4887
শ	-4888
চ	-4889
g	-4890
y	-4891
p	-4892
ড	-4893
ও	-4894
ভ	-4895
থ	-4896
b	-4897
ী	-4898
অ	-4899
ষ	-4900
ধ	-4901
ং	-4902
v	-4903
k	-4904
ঁ	-4905
ণ	-4906
উ	-4907
ফ	-4908
ঠ	-4909
ঙ	-4910
ূ	-4911
ঘ	-4912
ৃ	-4913
'	-4914
ঞ	-4915
x	-4916
ঝ	-4917
j	-4918
ৈ	-4919
ৎ	-4920
ৌ	-4921
q	-4922
z	-4923
ঢ	-4924
১	-4925
০	-4926
২	-4927
ঐ	-4928
ঃ	-4929
৯	-4930
"	-4931
৫	-4932
৩	-4933
P	-4934
৪	-4935
ঋ	-4936
৮	-4937
৬	-4938
ঈ	-4939
৭	-4940
C	-4941
’	-4942
S	-4943
L	-4944
I	-4945
T	-4946
H	-4947
A	-4948
ঊ	-4949
B	-4950
U	-4951
D	-4952
M	-4953
O	-4954
F	-4955
‘	-4956
ঔ	-4957
ৰ	-4958
E	-4959
W	-4960
:	-4961
	-4962
R	-4963
V	-4964
G	-4965
/	-4966
	-4967
‍	-4968
;	-4969
%	-4970
ৱ	-4971
0	-4972
2	-4973
1	-4974
4	-4975
–	-4976
3	-4977
—	-4978
“	-4979
8	-4980
”	-4981
5	-4982
ঽ	-4983
9	-4984
ৗ	-4985
_	-4986
ৄ	-4987
৻	-4988
K	-4989
৵	-4990
œ	-4991
॥	-4992
